<pad>	0
<unk>	0
<s>	0
</s>	0
<0x00>	0
<0x01>	0
<0x02>	0
<0x03>	0
<0x04>	0
<0x05>	0
<0x06>	0
<0x07>	0
<0x08>	0
<0x09>	0
<0x0A>	0
<0x0B>	0
<0x0C>	0
<0x0D>	0
<0x0E>	0
<0x0F>	0
<0x10>	0
<0x11>	0
<0x12>	0
<0x13>	0
<0x14>	0
<0x15>	0
<0x16>	0
<0x17>	0
<0x18>	0
<0x19>	0
<0x1A>	0
<0x1B>	0
<0x1C>	0
<0x1D>	0
<0x1E>	0
<0x1F>	0
<0x20>	0
<0x21>	0
<0x22>	0
<0x23>	0
<0x24>	0
<0x25>	0
<0x26>	0
<0x27>	0
<0x28>	0
<0x29>	0
<0x2A>	0
<0x2B>	0
<0x2C>	0
<0x2D>	0
<0x2E>	0
<0x2F>	0
<0x30>	0
<0x31>	0
<0x32>	0
<0x33>	0
<0x34>	0
<0x35>	0
<0x36>	0
<0x37>	0
<0x38>	0
<0x39>	0
<0x3A>	0
<0x3B>	0
<0x3C>	0
<0x3D>	0
<0x3E>	0
<0x3F>	0
<0x40>	0
<0x41>	0
<0x42>	0
<0x43>	0
<0x44>	0
<0x45>	0
<0x46>	0
<0x47>	0
<0x48>	0
<0x49>	0
<0x4A>	0
<0x4B>	0
<0x4C>	0
<0x4D>	0
<0x4E>	0
<0x4F>	0
<0x50>	0
<0x51>	0
<0x52>	0
<0x53>	0
<0x54>	0
<0x55>	0
<0x56>	0
<0x57>	0
<0x58>	0
<0x59>	0
<0x5A>	0
<0x5B>	0
<0x5C>	0
<0x5D>	0
<0x5E>	0
<0x5F>	0
<0x60>	0
<0x61>	0
<0x62>	0
<0x63>	0
<0x64>	0
<0x65>	0
<0x66>	0
<0x67>	0
<0x68>	0
<0x69>	0
<0x6A>	0
<0x6B>	0
<0x6C>	0
<0x6D>	0
<0x6E>	0
<0x6F>	0
<0x70>	0
<0x71>	0
<0x72>	0
<0x73>	0
<0x74>	0
<0x75>	0
<0x76>	0
<0x77>	0
<0x78>	0
<0x79>	0
<0x7A>	0
<0x7B>	0
<0x7C>	0
<0x7D>	0
<0x7E>	0
<0x7F>	0
<0x80>	0
<0x81>	0
<0x82>	0
<0x83>	0
<0x84>	0
<0x85>	0
<0x86>	0
<0x87>	0
<0x88>	0
<0x89>	0
<0x8A>	0
<0x8B>	0
<0x8C>	0
<0x8D>	0
<0x8E>	0
<0x8F>	0
<0x90>	0
<0x91>	0
<0x92>	0
<0x93>	0
<0x94>	0
<0x95>	0
<0x96>	0
<0x97>	0
<0x98>	0
<0x99>	0
<0x9A>	0
<0x9B>	0
<0x9C>	0
<0x9D>	0
<0x9E>	0
<0x9F>	0
<0xA0>	0
<0xA1>	0
<0xA2>	0
<0xA3>	0
<0xA4>	0
<0xA5>	0
<0xA6>	0
<0xA7>	0
<0xA8>	0
<0xA9>	0
<0xAA>	0
<0xAB>	0
<0xAC>	0
<0xAD>	0
<0xAE>	0
<0xAF>	0
<0xB0>	0
<0xB1>	0
<0xB2>	0
<0xB3>	0
<0xB4>	0
<0xB5>	0
<0xB6>	0
<0xB7>	0
<0xB8>	0
<0xB9>	0
<0xBA>	0
<0xBB>	0
<0xBC>	0
<0xBD>	0
<0xBE>	0
<0xBF>	0
<0xC0>	0
<0xC1>	0
<0xC2>	0
<0xC3>	0
<0xC4>	0
<0xC5>	0
<0xC6>	0
<0xC7>	0
<0xC8>	0
<0xC9>	0
<0xCA>	0
<0xCB>	0
<0xCC>	0
<0xCD>	0
<0xCE>	0
<0xCF>	0
<0xD0>	0
<0xD1>	0
<0xD2>	0
<0xD3>	0
<0xD4>	0
<0xD5>	0
<0xD6>	0
<0xD7>	0
<0xD8>	0
<0xD9>	0
<0xDA>	0
<0xDB>	0
<0xDC>	0
<0xDD>	0
<0xDE>	0
<0xDF>	0
<0xE0>	0
<0xE1>	0
<0xE2>	0
<0xE3>	0
<0xE4>	0
<0xE5>	0
<0xE6>	0
<0xE7>	0
<0xE8>	0
<0xE9>	0
<0xEA>	0
<0xEB>	0
<0xEC>	0
<0xED>	0
<0xEE>	0
<0xEF>	0
<0xF0>	0
<0xF1>	0
<0xF2>	0
<0xF3>	0
<0xF4>	0
<0xF5>	0
<0xF6>	0
<0xF7>	0
<0xF8>	0
<0xF9>	0
<0xFA>	0
<0xFB>	0
<0xFC>	0
<0xFD>	0
<0xFE>	0
<0xFF>	0
▁क	-0
▁स	-1
▁ह	-2
▁म	-3
▁प	-4
ें	-5
ार	-6
▁के	-7
▁ब	-8
्र	-9
ने	-10
▁है	-11
▁ज	-12
या	-13
▁द	-14
▁अ	-15
▁व	-16
▁र	-17
▁में	-18
▁ल	-19
ों	-20
▁न	-21
▁की	-22
▁आ	-23
▁को	-24
ता	-25
र्	-26
▁ग	-27
▁से	-28
▁त	-29
▁उ	-30
ान	-31
▁कर	-32
▁इ	-33
▁कि	-34
▁भ	-35
▁का	-36
्य	-37
▁औ	-38
ना	-39
▁और	-40
िक	-41
▁पर	-42
ाल	-43
▁ए	-44
▁श	-45
▁प्र	-46
▁ने	-47
▁च	-48
स्	-49
िल	-50
▁हो	-51
▁इस	-52
ही	-53
▁य	-54
क्	-55
ड़	-56
▁हैं	-57
हा	-58
ित	-59
▁थ	-60
ते	-61
▁जा	-62
िए	-63
ाम	-64
िया	-65
▁भी	-66
▁ख	-67
िय	-68
▁फ	-69
वा	-70
के	-71
न्	-72
ंग	-73
ती	-74
▁स्	-75
▁वि	-76
▁बा	-77
▁एक	-78
ला	-79
त्र	-80
हीं	-81
री	-82
ेश	-83
से	-84
ले	-85
▁सा	-86
▁लिए	-87
ति	-88
रा	-89
नी	-90
▁अप	-91
कर	-92
▁सम	-93
▁रा	-94
्या	-95
▁नहीं	-96
▁सं	-97
िन	-98
सी	-99
गा	-100
ोग	-101
▁ट	-102
▁ही	-103
▁दे	-104
▁ले	-105
ारी	-106
ुर	-107
का	-108
िस	-109
त्	-110
▁ड	-111
▁हु	-112
▁मु	-113
▁रह	-114
ली	-115
क्ष	-116
▁तो	-117
▁किया	-118
ंद	-119
्ट	-120
▁आप	-121
वार	-122
ां	-123
ाय	-124
की	-125
▁पह	-126
▁नि	-127
▁था	-128
▁यह	-129
▁गया	-130
▁कार	-131
कार	-132
्म	-133
ुल	-134
ियों	-135
▁करने	-136
▁घ	-137
▁उन	-138
ास	-139
▁साथ	-140
▁उस	-141
न्ह	-142
मा	-143
▁कु	-144
▁कहा	-145
रे	-146
िला	-147
ाह	-148
▁हम	-149
▁सक	-150
▁सि	-151
ंड	-152
▁अन	-153
▁या	-154
▁वाल	-155
▁अध	-156
दी	-157
▁पू	-158
सा	-159
▁सु	-160
ढ़	-161
▁बाद	-162
्री	-163
▁उन्ह	-164
▁छ	-165
कि	-166
▁ध	-167
गी	-168
▁राज	-169
▁लोग	-170
▁रहे	-171
▁जो	-172
भा	-173
िर	-174
ल्	-175
भी	-176
▁तक	-177
▁दो	-178
दा	-179
▁अपने	-180
ंच	-181
वि	-182
च्	-183
स्ट	-184
▁सर	-185
▁दिया	-186
ंत्र	-187
गे	-188
जी	-189
▁मह	-190
देश	-191
्रे	-192
श्	-193
▁थी	-194
ओं	-195
टी	-196
गर	-197
ैं	-198
द्	-199
तर	-200
ोज	-201
▁सी	-202
▁रहा	-203
वी	-204
▁मे	-205
▁भार	-206
▁मा	-207
▁हुए	-208
▁.	-209
रो	-210
▁मिल	-211
▁ऐ	-212
▁ला	-213
पी	-214
्ष	-215
▁पा	-216
ाना	-217
जा	-218
▁गई	-219
▁बी	-220
ानी	-221
टर	-222
▁जी	-223
▁चु	-224
था	-225
▁बता	-226
▁रही	-227
▁उप	-228
▁बार	-229
ेल	-230
▁भा	-231
बा	-232
किन	-233
में	-234
▁जिस	-235
ार्	-236
▁थे	-237
▁तर	-238
▁दी	-239
ष्ट	-240
िव	-241
प्	-242
▁बना	-243
▁वह	-244
ौर	-245
को	-246
▁लेकिन	-247
▁जब	-248
▁कम	-249
ोंने	-250
पा	-251
▁कुछ	-252
खा	-253
ीन	-254
ये	-255
▁,	-256
स्त	-257
ूर	-258
ड़ी	-259
▁अधिक	-260
▁लगा	-261
▁सब	-262
▁इन	-263
द्र	-264
शन	-265
▁-	-266
▁उन्होंने	-267
ड़ा	-268
▁बात	-269
ेट	-270
र्म	-271
▁जाए	-272
बर	-273
▁बह	-274
▁अब	-275
▁होने	-276
▁दिन	-277
नों	-278
हां	-279
▁चाह	-280
▁पुल	-281
▁मो	-282
▁पहले	-283
▁लोगों	-284
▁सरकार	-285
ंध	-286
हर	-287
▁मौ	-288
▁वर्	-289
ूप	-290
▁गए	-291
▁हि	-292
▁कोई	-293
▁स्थ	-294
िंग	-295
ंत्री	-296
▁पुलिस	-297
▁करते	-298
क्र	-299
▁पी	-300
▁इसके	-301
▁वे	-302
▁बि	-303
▁कह	-304
वर	-305
▁वाले	-306
▁कार्य	-307
वे	-308
ंह	-309
▁ये	-310
▁सो	-311
▁किसी	-312
▁अपनी	-313
▁जान	-314
▁अनु	-315
▁बे	-316
▁साम	-317
च्च	-318
▁देश	-319
ड़े	-320
▁ओ	-321
्यू	-322
ुत	-323
ज़	-324
▁भारत	-325
▁निर्	-326
िश	-327
▁द्	-328
ैसे	-329
▁देख	-330
ोट	-331
▁समय	-332
क्त	-333
कों	-334
▁प्रति	-335
र्ट	-336
▁दु	-337
▁तरह	-338
▁काम	-339
ोल	-340
ूल	-341
▁उत्	-342
्स	-343
▁रु	-344
▁कई	-345
्ल	-346
▁हर	-347
▁टी	-348
▁साल	-349
ूस	-350
पुर	-351
ाइ	-352
स्थ	-353
▁लग	-354
▁सिंह	-355
चार	-356
धान	-357
ंप	-358
▁परि	-359
▁व्य	-360
वं	-361
▁बढ़	-362
र्व	-363
मार	-364
▁आज	-365
▁दिल	-366
▁ऑ	-367
द्ध	-368
▁फिल	-369
▁क्ष	-370
▁लेकर	-371
▁जाता	-372
▁रूप	-373
क्षा	-374
ारा	-375
▁जन	-376
▁रख	-377
▁हुआ	-378
▁माम	-379
्यों	-380
ोक	-381
वारा	-382
▁मैं	-383
▁अं	-384
ाई	-385
▁बताया	-386
▁सभी	-387
बी	-388
▁करें	-389
मान	-390
▁पहु	-391
▁हुई	-392
▁शुर	-393
▁उनके	-394
जे	-395
▁।	-396
▁नाम	-397
▁द्वारा	-398
▁गु	-399
▁पार	-400
ंट	-401
▁आय	-402
िट	-403
▁‘	-404
िम	-405
▁बन	-406
▁बै	-407
िका	-408
ष्	-409
▁मुख	-410
कारी	-411
वाल	-412
▁चल	-413
चा	-414
दि	-415
जन	-416
्त	-417
▁सकते	-418
च्छ	-419
▁स्ट	-420
▁होता	-421
▁बहुत	-422
डी	-423
▁अम	-424
▁विक	-425
▁फिल्म	-426
▁करना	-427
वन	-428
▁उन्हें	-429
्ली	-430
▁पहुंच	-431
स्ता	-432
▁ना	-433
▁सकता	-434
▁घर	-435
▁पि	-436
ारे	-437
▁सू	-438
▁सह	-439
सर	-440
▁फिर	-441
▁दि	-442
▁ग्र	-443
▁होगा	-444
म्	-445
ेत्र	-446
▁शिक	-447
मंत्री	-448
एस	-449
बंध	-450
▁मै	-451
्टी	-452
▁दौर	-453
▁रुप	-454
ोर	-455
▁मान	-456
▁खु	-457
▁पु	-458
▁जाने	-459
▁बु	-460
▁प्रा	-461
्रेस	-462
▁क्षेत्र	-463
▁लि	-464
ोड़	-465
▁वा	-466
नि	-467
▁दिल्ली	-468
▁अभ	-469
▁एवं	-470
▁इं	-471
▁रि	-472
▁दर्	-473
▁गां	-474
▁हाल	-475
सान	-476
ून	-477
▁जर	-478
ेंद्र	-479
ाने	-480
▁लिया	-481
जार	-482
▁जु	-483
▁हा	-484
ब्	-485
▁दूस	-486
तीय	-487
▁आई	-488
▁आपको	-489
▁बच्च	-490
नाव	-491
▁क्या	-492
क्ति	-493
योग	-494
▁सबसे	-495
▁ता	-496
मी	-497
▁खिला	-498
धार	-499
▁मुख्य	-500
ेर	-501
्ञ	-502
▁कारण	-503
▁पास	-504
दार	-505
▁'	-506
▁दौरान	-507
▁प्रदेश	-508
ीड	-509
▁शुरू	-510
्यादा	-511
र्थ	-512
एं	-513
▁मन	-514
▁स्व	-515
फी	-516
▁झ	-517
पर	-518
एम	-519
▁अव	-520
▁महिला	-521
▁निक	-522
क्ट	-523
▁यु	-524
▁ठ	-525
▁शाम	-526
▁समा	-527
▁वर्ष	-528
▁कै	-529
▁उसके	-530
▁वो	-531
ध्य	-532
ंस	-533
जर	-534
म्म	-535
▁उसे	-536
दे	-537
▁चाहिए	-538
शी	-539
र्स	-540
▁बीच	-541
▁राज्य	-542
यर	-543
▁पै	-544
▁ज्यादा	-545
▁दोनों	-546
लय	-547
▁तथा	-548
▁नी	-549
▁उनकी	-550
सार	-551
▁बद	-552
▁ऐसे	-553
▁अगर	-554
हत	-555
▁क्यों	-556
▁वाली	-557
न्न	-558
र्ण	-559
▁ई	-560
▁तीन	-561
भाव	-562
क्स	-563
▁जि	-564
▁आरो	-565
ूम	-566
प्र	-567
▁कांग	-568
ृत	-569
▁क्र	-570
▁रो	-571
धी	-572
▁अल	-573
्रीय	-574
▁अच्छ	-575
वाद	-576
▁होती	-577
्ड	-578
क्रम	-579
▁मामले	-580
▁भारतीय	-581
▁यहां	-582
टना	-583
▁स्थित	-584
र्ड	-585
ेज	-586
जू	-587
▁अन्य	-588
ियां	-589
▁चुनाव	-590
▁राष्ट	-591
▁टीम	-592
ेंगे	-593
दान	-594
ैन	-595
प्त	-596
▁डॉ	-597
▁श्री	-598
▁स्क	-599
हार	-600
▁कंप	-601
▁कांग्रेस	-602
▁अग	-603
िये	-604
पो	-605
▁तै	-606
ंक	-607
ोन	-608
भाग	-609
स्था	-610
▁बैठ	-611
▁फै	-612
▁अपना	-613
▁विश्	-614
स्प	-615
लों	-616
▁गो	-617
▁छा	-618
▁देने	-619
▁पार्टी	-620
▁कुमार	-621
ताओं	-622
आई	-623
▁एस	-624
▁करता	-625
वान	-626
णा	-627
ाली	-628
▁कॉ	-629
▁बारे	-630
▁ओर	-631
ियो	-632
▁चौ	-633
▁डि	-634
त्व	-635
पू	-636
चना	-637
▁जानकारी	-638
▁अध्य	-639
▁यू	-640
टा	-641
गत	-642
▁बो	-643
त्म	-644
▁ऐसा	-645
▁पूर्व	-646
ोजना	-647
▁शु	-648
▁दर	-649
▁पद	-650
ंत	-651
▁इससे	-652
▁जाएगा	-653
▁इसी	-654
ंब	-655
लो	-656
▁काफी	-657
ज्ञ	-658
▁वहीं	-659
▁ट्र	-660
▁सुर	-661
इन	-662
▁हू	-663
मु	-664
वल	-665
▁शिक्ष	-666
▁आर	-667
निया	-668
त्रा	-669
वास	-670
▁जैसे	-671
ेशन	-672
वाई	-673
▁विश	-674
▁शामिल	-675
दर्	-676
रण	-677
▁खिलाफ	-678
▁ली	-679
धा	-680
▁किए	-681
झे	-682
ुरु	-683
▁राम	-684
▁नई	-685
▁मोदी	-686
्रा	-687
▁जारी	-688
यी	-689
द्य	-690
▁इसे	-691
▁गांव	-692
्यालय	-693
ुक	-694
▁पढ़	-695
▁पिछ	-696
दन	-697
▁शा	-698
▁उठ	-699
▁समझ	-700
ेड	-701
▁याद	-702
▁लाख	-703
क्टर	-704
ोष	-705
ंदी	-706
▁मांग	-707
▁तैय	-708
▁महा	-709
▁सफ	-710
पाल	-711
▁निय	-712
लिए	-713
▁सामने	-714
ामी	-715
▁होगी	-716
तों	-717
िले	-718
न्द	-719
▁आरोप	-720
▁जाती	-721
▁जिला	-722
▁विभाग	-723
▁आने	-724
िता	-725
▁प्रधान	-726
▁संग	-727
जपा	-728
ेष	-729
▁स्वा	-730
▁जग	-731
▁ऊ	-732
▁पूरी	-733
▁मार्	-734
▁पां	-735
▁भाजपा	-736
पोर्ट	-737
▁करोड़	-738
▁अध्यक्ष	-739
▁पड़	-740
सभा	-741
▁पत्र	-742
ंबर	-743
▁अनुसार	-744
▁मंत्री	-745
▁जांच	-746
▁रुपये	-747
▁चार	-748
▁आए	-749
▁गिर	-750
ेंट	-751
ीस	-752
ूट	-753
▁संबंध	-754
चित	-755
▁होते	-756
▁अभी	-757
▁करी	-758
▁वै	-759
माण	-760
धिक	-761
▁सकती	-762
▁आम	-763
▁प्रश	-764
▁चे	-765
▁भर	-766
▁डी	-767
▁इत	-768
ाला	-769
र्फ	-770
▁खा	-771
▁हों	-772
▁विकास	-773
▁आपके	-774
स्क	-775
▁सद	-776
▁तब	-777
▁कप	-778
▁लड़	-779
तिक	-780
▁किसान	-781
्ला	-782
स्तान	-783
▁परिवार	-784
▁पानी	-785
▁इसमें	-786
▁इला	-787
▁योजना	-788
जूद	-789
▁मुझे	-790
ष्ठ	-791
▁क्योंकि	-792
▁जीवन	-793
▁घटना	-794
▁व्या	-795
▁टे	-796
▁विश्व	-797
▁ब्र	-798
▁शहर	-799
ची	-800
▁इस्	-801
करण	-802
▁लोक	-803
तार	-804
▁अला	-805
▁दा	-806
ताब	-807
▁इसलिए	-808
▁व्यव	-809
▁आदि	-810
ख्या	-811
सल	-812
▁करे	-813
▁अलग	-814
▁पो	-815
▁योग	-816
ासन	-817
▁कल	-818
▁आगे	-819
▁"	-820
▁जिन	-821
▁बनाने	-822
▁पिछले	-823
त्या	-824
▁अधिकार	-825
▁बैं	-826
ताल	-827
▁उत्तर	-828
▁करा	-829
▁उनका	-830
ोध	-831
▁मुख्यमंत्री	-832
▁परी	-833
तु	-834
श्य	-835
▁तु	-836
▁इंड	-837
चे	-838
▁मत	-839
▁आयोज	-840
▁कभी	-841
▁बड़ी	-842
▁दर्ज	-843
ायर	-844
ायत	-845
▁दिखा	-846
▁मद	-847
बाद	-848
▁बंद	-849
ीर	-850
▁अलावा	-851
▁व्यक्ति	-852
कर्	-853
▁चला	-854
▁हमारे	-855
ेम	-856
▁बल्	-857
▁गा	-858
▁दिए	-859
इट	-860
▁मिले	-861
▁बस	-862
▁ऑफ	-863
ेंद	-864
▁हजार	-865
▁जिसमें	-866
त्य	-867
▁उसकी	-868
▁जहां	-869
▁समाज	-870
ंगे	-871
▁इसका	-872
▁खेल	-873
▁वर	-874
जह	-875
▁विध	-876
▁करीब	-877
▁विशेष	-878
न्द्र	-879
▁दें	-880
▁जै	-881
▁ज़	-882
र्क	-883
▁हाथ	-884
शि	-885
▁कंपनी	-886
▁मिला	-887
ार्थ	-888
जय	-889
▁जाते	-890
▁दिनों	-891
▁बेह	-892
▁कर्म	-893
▁बर	-894
ंगल	-895
▁जबकि	-896
फ्त	-897
शा	-898
र्य	-899
बू	-900
पन	-901
▁पता	-902
▁न्यू	-903
म्मी	-904
तन	-905
▁कार्यक्रम	-906
▁केंद्र	-907
▁जगह	-908
▁बॉ	-909
▁आधार	-910
▁रे	-911
▁जिले	-912
▁स्कूल	-913
▁मीड	-914
▁बाहर	-915
▁यदि	-916
▁अर	-917
▁वजह	-918
प्ता	-919
▁तैयार	-920
▁दूसरे	-921
▁आया	-922
ियर	-923
्व	-924
▁अस	-925
▁मज	-926
णी	-927
▁मीडिया	-928
▁प्रधानमंत्री	-929
▁मौत	-930
आर	-931
बह	-932
▁ची	-933
क्षण	-934
▁हे	-935
▁कान	-936
▁कृ	-937
ुक्त	-938
स्या	-939
▁शिव	-940
फ़	-941
▁नौ	-942
▁नगर	-943
ांकि	-944
▁पांच	-945
▁नेता	-946
▁दुनिया	-947
मे	-948
▁रात	-949
मेंट	-950
▁हालांकि	-951
पूर्ण	-952
हाँ	-953
▁अधिकारी	-954
▁उम्मी	-955
▁मंद	-956
▁डा	-957
▁पत्	-958
▁पाकि	-959
▁उम्मीद	-960
▁वाला	-961
▁ढ	-962
हन	-963
लि	-964
▁अस्प	-965
ंज	-966
▁बच्चों	-967
▁पे	-968
▁प्राप्त	-969
▁जरूर	-970
▁फ़	-971
▁सच	-972
▁स्थान	-973
▁आस	-974
जों	-975
▁एन	-976
▁मदद	-977
▁सिर्फ	-978
▁दूर	-979
▁आग	-980
▁सौ	-981
▁पूरा	-982
▁नजर	-983
षा	-984
▁स्प	-985
ायक	-986
▁राष्ट्र	-987
▁खुद	-988
▁छात्र	-989
्यान	-990
मत	-991
ंदर	-992
▁वहां	-993
▁न्या	-994
माल	-995
▁आद	-996
▁करती	-997
ल्प	-998
त्री	-999
▁कोरो	-1000
▁प्रकार	-1001
▁बड़े	-1002
▁करके	-1003
▁सेवा	-1004
▁तहत	-1005
▁मही	-1006
▁रिपोर्ट	-1007
▁प्रो	-1008
▁भाग	-1009
यन	-1010
▁कहना	-1011
▁लगे	-1012
▁मैच	-1013
▁कोरोना	-1014
▁मंदिर	-1015
▁रहने	-1016
▁सुन	-1017
▁शर्	-1018
▁मेरे	-1019
▁बजे	-1020
▁देते	-1021
▁समस्या	-1022
ंगा	-1023
षण	-1024
कान	-1025
▁पं	-1026
▁सदस	-1027
▁संख्या	-1028
▁हूं	-1029
▁लिख	-1030
▁कुल	-1031
▁मुताब	-1032
▁मार	-1033
मुख	-1034
▁मुताबिक	-1035
▁रुपए	-1036
ूरी	-1037
▁सम्म	-1038
ियन	-1039
डे	-1040
▁डे	-1041
▁जीत	-1042
▁जिसके	-1043
▁नए	-1044
▁परीक्षा	-1045
▁वीड	-1046
▁राजनी	-1047
वेश	-1048
काश	-1049
ैंड	-1050
▁उपयोग	-1051
राज	-1052
▁उसने	-1053
वासी	-1054
▁जल	-1055
▁चि	-1056
▁साह	-1057
▁इसकी	-1058
स्थान	-1059
डा	-1060
▁सुरक्षा	-1061
▁बैंक	-1062
▁एम	-1063
▁सुबह	-1064
टे	-1065
तम	-1066
▁मि	-1067
▁बाल	-1068
▁यादव	-1069
पति	-1070
▁अमेर	-1071
ेंस	-1072
ुआ	-1073
वरी	-1074
▁करेंगे	-1075
▁आव	-1076
▁केवल	-1077
▁शिक्षा	-1078
▁रिक	-1079
▁बड़ा	-1080
▁कोर्ट	-1081
▁ट्रे	-1082
ीय	-1083
काल	-1084
▁फैस	-1085
▁पहली	-1086
▁ध्यान	-1087
▁जिससे	-1088
भव	-1089
▁धन	-1090
▁अस्पताल	-1091
▁वीडियो	-1092
धि	-1093
▁पूछ	-1094
▁बिल	-1095
▁स्थिति	-1096
▁निर्देश	-1097
▁प्रदर्	-1098
ुट	-1099
यास	-1100
▁ऐसी	-1101
▁लेने	-1102
▁जनता	-1103
▁:	-1104
▁विरो	-1105
▁खे	-1106
गढ़	-1107
▁खान	-1108
▁दल	-1109
▁राष्ट्रीय	-1110
भि	-1111
▁पाकिस्तान	-1112
▁गयी	-1113
हरा	-1114
▁लिये	-1115
▁वी	-1116
▁उपल	-1117
▁मिली	-1118
▁कोश	-1119
▁घोष	-1120
▁जम	-1121
▁निर्माण	-1122
▁सर्	-1123
▁हिस्	-1124
स्थ्य	-1125
▁गुरु	-1126
शल	-1127
▁नर	-1128
▁बैठक	-1129
▁तरफ	-1130
▁प्रभाव	-1131
▁खरी	-1132
भग	-1133
द्यालय	-1134
▁जल्	-1135
▁दिव	-1136
राब	-1137
▁जाएगी	-1138
▁व्याप	-1139
▁हमें	-1140
▁लाभ	-1141
▁विधान	-1142
▁जाना	-1143
▁कैसे	-1144
वीर	-1145
▁होना	-1146
▁डाल	-1147
▁युव	-1148
ित्र	-1149
ध्यम	-1150
दों	-1151
▁श्र	-1152
ालय	-1153
बार	-1154
ग्	-1155
र्चा	-1156
ल्ड	-1157
बे	-1158
▁धर्म	-1159
▁पुर	-1160
र्ष	-1161
शत	-1162
▁स्वास्थ्य	-1163
वाह	-1164
▁छोड़	-1165
चान	-1166
▁उसका	-1167
▁रेल	-1168
▁खबर	-1169
▁आत	-1170
ैल	-1171
बल	-1172
▁लगभग	-1173
▁पूरे	-1174
▁भग	-1175
ड़क	-1176
▁पंच	-1177
खंड	-1178
▁मौजूद	-1179
▁अह	-1180
▁माल	-1181
▁सवाल	-1182
▁गांधी	-1183
नाथ	-1184
त्ता	-1185
ग्र	-1186
▁अफ	-1187
▁उपलब्	-1188
▁लाल	-1189
▁यही	-1190
ियम	-1191
▁अच्छा	-1192
▁जे	-1193
▁वित	-1194
▁अर्	-1195
िति	-1196
▁शर्मा	-1197
▁बिना	-1198
▁सके	-1199
▁विचार	-1200
▁मौके	-1201
रीर	-1202
▁मां	-1203
▁सूचना	-1204
ूर्	-1205
▁राह	-1206
▁गिरफ्त	-1207
▁शादी	-1208
▁रवि	-1209
▁मी	-1210
▁ब्ल	-1211
सि	-1212
▁मंत्र	-1213
▁गल	-1214
▁शे	-1215
▁सफल	-1216
▁कोशिश	-1217
ोह	-1218
▁संघ	-1219
▁इस्ते	-1220
श्यक	-1221
▁स्तर	-1222
▁इस्तेमाल	-1223
▁हिंदी	-1224
▁मूल	-1225
▁महत्व	-1226
▁चुके	-1227
दारी	-1228
▁मैंने	-1229
▁कौ	-1230
▁चा	-1231
▁वन	-1232
▁प्रमुख	-1233
▁रोक	-1234
▁बिज	-1235
श्म	-1236
▁बिहार	-1237
▁उत	-1238
▁उठा	-1239
▁भूम	-1240
▁रन	-1241
▁चाहते	-1242
▁बाजार	-1243
▁व्यवस्था	-1244
▁रत	-1245
▁पोस्ट	-1246
ण्ड	-1247
ुन	-1248
▁महीने	-1249
▁अभि	-1250
▁गै	-1251
ंदा	-1252
▁रखा	-1253
र्च	-1254
▁माध्यम	-1255
▁जय	-1256
लाई	-1257
▁घंट	-1258
▁जन्	-1259
ीक	-1260
▁थाना	-1261
▁रोज	-1262
भिन्न	-1263
▁वाप	-1264
यान	-1265
▁तौर	-1266
▁फीस	-1267
वेदन	-1268
टन	-1269
▁पेश	-1270
एल	-1271
▁पक	-1272
▁देखा	-1273
सम	-1274
▁बदल	-1275
▁दूसरी	-1276
लर	-1277
▁उपलब्ध	-1278
टक	-1279
▁लगातार	-1280
▁पिता	-1281
▁होंगे	-1282
ृति	-1283
▁अधिकारियों	-1284
▁प्रदर्शन	-1285
▁आवश्यक	-1286
मन	-1287
▁सहित	-1288
▁सही	-1289
▁सीट	-1290
▁विभिन्न	-1291
▁परेश	-1292
▁सम्	-1293
▁उम	-1294
▁कार्र	-1295
▁अंतर	-1296
▁बचा	-1297
▁तरी	-1298
पु	-1299
ठन	-1300
▁उच्च	-1301
ष्य	-1302
ज्ञान	-1303
▁लॉ	-1304
▁मंगल	-1305
▁रंग	-1306
▁विधानसभा	-1307
▁जवा	-1308
ंबई	-1309
▁खास	-1310
▁कार्रवाई	-1311
एन	-1312
▁माह	-1313
▁बल्कि	-1314
्क	-1315
▁बढ़ा	-1316
▁ते	-1317
▁ख़	-1318
कु	-1319
▁फर	-1320
▁प्रशासन	-1321
▁किसानों	-1322
▁दिख	-1323
▁बच्चे	-1324
▁सामान	-1325
नल	-1326
ात	-1327
ंका	-1328
▁मध्य	-1329
थम	-1330
▁रण	-1331
मो	-1332
▁हत्या	-1333
▁सर्व	-1334
▁चलते	-1335
▁फोन	-1336
▁प्रतिशत	-1337
श्च	-1338
र्ती	-1339
▁मामला	-1340
▁कहते	-1341
▁बच	-1342
▁सोम	-1343
इल	-1344
▁मिलने	-1345
▁सरकारी	-1346
▁देखने	-1347
▁मुंबई	-1348
▁प्रयास	-1349
▁लगी	-1350
लब	-1351
▁उत्पा	-1352
▁शुक्र	-1353
▁शरीर	-1354
ूब	-1355
▁बनाया	-1356
दम	-1357
▁मना	-1358
▁पीछ	-1359
▁चुकी	-1360
ॉर्ड	-1361
▁लगता	-1362
उन	-1363
ेस	-1364
▁यात्रा	-1365
▁इंटर	-1366
▁आदेश	-1367
िज	-1368
▁पाल	-1369
▁भाव	-1370
▁अंत	-1371
▁नोट	-1372
रिक	-1373
▁विरोध	-1374
▁छोट	-1375
हाय	-1376
▁नही	-1377
▁थीं	-1378
▁ठीक	-1379
▁महिलाओं	-1380
▁राशि	-1381
ित्य	-1382
▁अच्छी	-1383
ीत	-1384
▁विदेश	-1385
ायल	-1386
जेपी	-1387
▁गं	-1388
▁जिसे	-1389
▁आपकी	-1390
▁लगाया	-1391
क्शन	-1392
▁रखने	-1393
▁बज	-1394
▁भे	-1395
रों	-1396
▁भाई	-1397
▁इंडिया	-1398
ेंड	-1399
▁अति	-1400
फा	-1401
▁समर्थ	-1402
▁युवा	-1403
ॉल	-1404
▁बने	-1405
▁पस	-1406
ांत	-1407
▁वाह	-1408
▁शनि	-1409
▁संप	-1410
▁शाह	-1411
लाइन	-1412
▁वृ	-1413
▁निकल	-1414
ष्ण	-1415
विधा	-1416
तरा	-1417
▁बेट	-1418
▁तम	-1419
▁जन्म	-1420
▁लिखा	-1421
▁बीजेपी	-1422
कल	-1423
▁गये	-1424
चाल	-1425
गल	-1426
ंख	-1427
▁भगवान	-1428
मारी	-1429
▁चीन	-1430
▁जाये	-1431
हास	-1432
▁पत्नी	-1433
िकल	-1434
▁चर्चा	-1435
▁लक्ष	-1436
भर	-1437
▁मेरी	-1438
ामीण	-1439
पित	-1440
िकी	-1441
▁तस्	-1442
▁सोच	-1443
▁स्था	-1444
▁अख	-1445
ियान	-1446
पे	-1447
ंद्र	-1448
ार्ड	-1449
▁नियम	-1450
▁ग्रामीण	-1451
▁पहुंचे	-1452
▁राय	-1453
ैक	-1454
लेज	-1455
▁कित	-1456
खन	-1457
▁अंग	-1458
्यो	-1459
▁सोमवार	-1460
▁विष	-1461
▁बुध	-1462
िस्ट	-1463
▁उद	-1464
िटी	-1465
▁पक्ष	-1466
धन	-1467
▁पट	-1468
▁गिरफ्तार	-1469
▁कहीं	-1470
ुड	-1471
ॉप	-1472
▁भू	-1473
▁सांस	-1474
र्या	-1475
▁तेज	-1476
▁माना	-1477
▁किस	-1478
▁आयोजित	-1479
▁कट	-1480
चर	-1481
▁नव	-1482
▁होकर	-1483
▁प्रकाश	-1484
▁पेट	-1485
▁जवाब	-1486
▁ज्ञ	-1487
▁भाषा	-1488
▁शिकायत	-1489
किल	-1490
▁क्रिक	-1491
▁देव	-1492
वादी	-1493
इस	-1494
▁वालों	-1495
्वी	-1496
▁राहुल	-1497
▁सदस्य	-1498
▁सहाय	-1499
▁पीछे	-1500
व्य	-1501
▁हूँ	-1502
▁आख	-1503
▁सड़क	-1504
▁रस	-1505
द्धि	-1506
▁बिजली	-1507
▁संय	-1508
भीर	-1509
ार्म	-1510
▁चुका	-1511
▁सुविधा	-1512
▁ग्राम	-1513
ड़ों	-1514
▁शुरुआ	-1515
▁गि	-1516
▁निवासी	-1517
▁थो	-1518
▁वायर	-1519
▁करवा	-1520
▁कर्	-1521
▁रहते	-1522
▁लौ	-1523
▁नंबर	-1524
▁बयान	-1525
▁जरूरत	-1526
द्योग	-1527
▁सम्मान	-1528
ंडी	-1529
ेक	-1530
▁अद	-1531
▁सेना	-1532
ेशा	-1533
▁दौ	-1534
▁जल्द	-1535
गार	-1536
तिहास	-1537
▁चिक	-1538
▁क्ल	-1539
▁विधायक	-1540
त्मक	-1541
वत	-1542
▁दू	-1543
▁अमेरिका	-1544
▁शो	-1545
न्हें	-1546
▁एक्स	-1547
▁रिकॉर्ड	-1548
▁अवसर	-1549
जल	-1550
▁बल	-1551
▁हमारी	-1552
ग्री	-1553
▁शुक्रवार	-1554
ांस	-1555
▁जमा	-1556
▁आवेदन	-1557
यों	-1558
ोरी	-1559
▁दोस्त	-1560
गम	-1561
▁बनाए	-1562
▁ऊपर	-1563
नर	-1564
▁सित	-1565
▁जिम	-1566
्रम	-1567
▁बोर्ड	-1568
▁देता	-1569
▁कमी	-1570
▁मंगलवार	-1571
िली	-1572
▁लो	-1573
▁भर्ती	-1574
रल	-1575
▁उसी	-1576
▁टेस्ट	-1577
▁शी	-1578
▁अहम	-1579
▁मश	-1580
▁मुद्	-1581
▁हाई	-1582
धे	-1583
▁घंटे	-1584
▁न्याया	-1585
▁मृत	-1586
▁बोल	-1587
▁बुधवार	-1588
▁कीमत	-1589
▁पड़ा	-1590
▁भेज	-1591
ल्स	-1592
िशा	-1593
▁देर	-1594
▁तस्वीर	-1595
▁देखते	-1596
▁प्रयोग	-1597
▁सोशल	-1598
तान	-1599
▁खरीद	-1600
▁गंभीर	-1601
र्ग	-1602
▁फैसला	-1603
--	-1604
▁वक्त	-1605
▁मरी	-1606
▁हास	-1607
धर	-1608
▁निकाल	-1609
रात	-1610
▁वेब	-1611
्रीन	-1612
▁कराया	-1613
▁मोबा	-1614
▁एल	-1615
▁बेहतर	-1616
गू	-1617
▁गण	-1618
एफ	-1619
जिक	-1620
▁प्रभ	-1621
▁हमेशा	-1622
त्ति	-1623
्ले	-1624
▁अभियान	-1625
क्रिया	-1626
बंधन	-1627
▁महारा	-1628
यू	-1629
▁महत्वपूर्ण	-1630
ंभ	-1631
▁!	-1632
▁पति	-1633
▁गेंद	-1634
▁इतना	-1635
▁मिन	-1636
टल	-1637
तियों	-1638
तंत्र	-1639
ोस	-1640
▁एज	-1641
▁सहयोग	-1642
▁शब्	-1643
रिया	-1644
करी	-1645
क्षित	-1646
▁फीसदी	-1647
▁प्रदान	-1648
दाय	-1649
▁शनिवार	-1650
▁देना	-1651
मता	-1652
▁मोह	-1653
▁पाए	-1654
▁ताकि	-1655
ठी	-1656
वुड	-1657
▁रविवार	-1658
▁तय	-1659
▁व्यापार	-1660
▁तुम	-1661
▁सल	-1662
▁वापस	-1663
मार्ट	-1664
▁दुकान	-1665
षि	-1666
हरी	-1667
क़	-1668
▁आयोजन	-1669
▁शेयर	-1670
▁तीस	-1671
कट	-1672
▁भु	-1673
▁लें	-1674
▁आन	-1675
▁प्रक्रिया	-1676
▁कानून	-1677
ुओं	-1678
चल	-1679
▁स्वी	-1680
▁पहचान	-1681
▁ऑन	-1682
▁सीमा	-1683
▁नीचे	-1684
▁फोट	-1685
ूह	-1686
▁विप	-1687
▁सचिव	-1688
▁आरोपी	-1689
नेट	-1690
▁मोबाइल	-1691
क्षि	-1692
किंग	-1693
▁तेल	-1694
िक्ष	-1695
▁कराने	-1696
▁जून	-1697
▁नया	-1698
श्मीर	-1699
▁समिति	-1700
▁अप्र	-1701
स्थित	-1702
▁फाइ	-1703
▁हासिल	-1704
▁पूजा	-1705
ूं	-1706
ष्टि	-1707
▁देशों	-1708
▁पंजा	-1709
▁यहाँ	-1710
▁राष्ट्रपति	-1711
▁पड़े	-1712
ंडल	-1713
▁सात	-1714
▁साफ	-1715
र्जी	-1716
हाल	-1717
▁लेख	-1718
▁प्रेम	-1719
▁रहता	-1720
▁हिस्सा	-1721
्रीम	-1722
▁उम्मीदवार	-1723
लीवुड	-1724
▁चुन	-1725
▁जेल	-1726
लाह	-1727
विद्यालय	-1728
▁पत्रकार	-1729
▁क्रिकेट	-1730
तिम	-1731
▁चिकित	-1732
▁अंदर	-1733
▁कार्यकर्	-1734
▁ड्र	-1735
ांति	-1736
▁अर्थ	-1737
▁परिव	-1738
्मे	-1739
▁घोषणा	-1740
स्कार	-1741
▁छो	-1742
▁रेलवे	-1743
▁पसंद	-1744
अल	-1745
▁संक्रम	-1746
िकों	-1747
ेत	-1748
▁मिश	-1749
▁कवि	-1750
श्चित	-1751
▁बनी	-1752
फ्	-1753
▁प्य	-1754
▁लगाने	-1755
▁आर्थ	-1756
▁आतंक	-1757
▁यून	-1758
▁कला	-1759
▁पूर्ण	-1760
वरण	-1761
▁नरेंद्र	-1762
▁बदला	-1763
▁पंचायत	-1764
▁आपका	-1765
▁आयोग	-1766
▁शि	-1767
चन	-1768
क्सी	-1769
▁फ्र	-1770
्रोल	-1771
▁चाल	-1772
▁गति	-1773
▁आश	-1774
▁शुरुआत	-1775
▁एड	-1776
्वर	-1777
▁खूब	-1778
▁सन	-1779
▁रक	-1780
ज्	-1781
▁विवाद	-1782
यं	-1783
▁अपरा	-1784
▁आर्थिक	-1785
खी	-1786
▁तला	-1787
▁उद्	-1788
▁पहल	-1789
तक	-1790
▁कदम	-1791
▁दृ	-1792
कत	-1793
ृह	-1794
▁गौर	-1795
▁युवक	-1796
▁वर्ग	-1797
▁टै	-1798
तृ	-1799
काब	-1800
▁गुज	-1801
▁समु	-1802
पक	-1803
▁मार्च	-1804
्यु	-1805
▁बेहद	-1806
झा	-1807
ामा	-1808
ानीय	-1809
▁दुर्	-1810
मर	-1811
▁ट्रेन	-1812
▁उससे	-1813
स्तव	-1814
▁राजस्थान	-1815
लिया	-1816
ियल	-1817
▁खो	-1818
▁फाय	-1819
▁रोग	-1820
▁दक्षि	-1821
▁ऋ	-1822
▁केंद	-1823
▁मजबू	-1824
▁संचाल	-1825
साद	-1826
▁मार्ग	-1827
▁एक्ट	-1828
▁स्थानीय	-1829
▁त्र	-1830
▁सै	-1831
▁देवी	-1832
▁भारी	-1833
▁किये	-1834
▁विद्य	-1835
▁रिश्	-1836
कर्म	-1837
ंगी	-1838
▁आते	-1839
▁उम्र	-1840
▁जरूरी	-1841
▁समेत	-1842
▁मेरा	-1843
▁अंतिम	-1844
▁बाव	-1845
▁कार्ड	-1846
फ्ट	-1847
▁कार्यालय	-1848
ूबर	-1849
▁केंद्रीय	-1850
▁मर	-1851
▁छह	-1852
▁वही	-1853
▁अगले	-1854
▁प्रत्य	-1855
ोजन	-1856
▁जाएंगे	-1857
▁आता	-1858
▁पीएम	-1859
▁राजनीतिक	-1860
▁रम	-1861
▁दिखाई	-1862
▁यानी	-1863
क्ता	-1864
नीय	-1865
▁छोटे	-1866
▁पंजाब	-1867
भार	-1868
▁नेताओं	-1869
▁संगठन	-1870
▁राजनीति	-1871
▁पाया	-1872
मति	-1873
▁बारिश	-1874
▁निश	-1875
▁तरीके	-1876
▁जमीन	-1877
पना	-1878
ूक	-1879
फर	-1880
▁?	-1881
▁मॉ	-1882
▁मिनट	-1883
▁अगस्त	-1884
▁यूपी	-1885
▁निर्ण	-1886
ोलन	-1887
सू	-1888
इड	-1889
▁रोड	-1890
▁ति	-1891
▁जित	-1892
ध्यक्ष	-1893
▁कंपन	-1894
▁जिम्मे	-1895
▁उल्	-1896
▁संबंधित	-1897
▁धो	-1898
▁लखन	-1899
धिकार	-1900
▁मई	-1901
ष्ट्रीय	-1902
▁हमने	-1903
ंसा	-1904
श्चिम	-1905
णाम	-1906
▁एंड	-1907
शनल	-1908
वर्	-1909
▁पहला	-1910
▁आवा	-1911
म्ह	-1912
▁हिंद	-1913
रीब	-1914
▁संभाव	-1915
▁रै	-1916
▁धर	-1917
▁विषय	-1918
▁रज	-1919
▁बावजूद	-1920
▁जैसी	-1921
▁खत्म	-1922
राव	-1923
साइट	-1924
▁समर्थन	-1925
▁सुप	-1926
▁बॉलीवुड	-1927
▁इलाज	-1928
नो	-1929
▁नागर	-1930
▁एयर	-1931
स्ती	-1932
त्रों	-1933
▁गुरुवार	-1934
▁मल	-1935
▁मेड	-1936
िष्ठ	-1937
▁कॉलेज	-1938
▁पैसे	-1939
बाजी	-1940
▁रहती	-1941
▁मुकाब	-1942
दू	-1943
▁मंत्रालय	-1944
▁परेशान	-1945
▁अच्छे	-1946
▁न्यूज़	-1947
▁ऑनलाइन	-1948
▁छात्रों	-1949
▁चले	-1950
▁सामा	-1951
▁कौन	-1952
▁शाय	-1953
▁लागू	-1954
▁माता	-1955
▁भूमिका	-1956
▁आठ	-1957
▁टाइ	-1958
▁गय	-1959
तरी	-1960
कृत	-1961
▁कहानी	-1962
▁लेते	-1963
▁घायल	-1964
म्प	-1965
स्व	-1966
न्ना	-1967
▁जुड़े	-1968
स्ताव	-1969
▁स्क्रीन	-1970
▁सें	-1971
▁अदाल	-1972
शु	-1973
▁शव	-1974
▁पाठ	-1975
▁डॉक्टर	-1976
▁बेटी	-1977
एच	-1978
▁तह	-1979
▁सामाजिक	-1980
▁जुलाई	-1981
▁जानते	-1982
हरे	-1983
िक्स	-1984
▁सुना	-1985
▁सामान्य	-1986
सत	-1987
▁जाय	-1988
पास	-1989
▁देकर	-1990
▁नुक	-1991
▁सीएम	-1992
ड़ने	-1993
▁लखनऊ	-1994
▁प्रस्ताव	-1995
▁मुला	-1996
▁आत्म	-1997
▁प्रभावित	-1998
इक	-1999
धानी	-2000
▁बनने	-2001
ौल	-2002
▁गलत	-2003
क्षक	-2004
▁रहेगा	-2005
देव	-2006
▁संस्था	-2007
▁पीड़	-2008
▁स्वयं	-2009
▁शक्ति	-2010
▁तत्	-2011
▁विकेट	-2012
▁दस	-2013
▁निजी	-2014
▁साब	-2015
▁हमला	-2016
▁पश्चिम	-2017
▁गर्	-2018
▁आध	-2019
्रो	-2020
ॉक	-2021
ांड	-2022
▁प्यार	-2023
श्व	-2024
▁फोटो	-2025
फे	-2026
▁उनसे	-2027
केट	-2028
्यता	-2029
▁व्यक्त	-2030
▁निगम	-2031
ब्ल	-2032
▁गाय	-2033
▁वरिष्ठ	-2034
▁हार	-2035
ंता	-2036
राने	-2037
▁प्रवेश	-2038
▁पहुंचा	-2039
ील	-2040
▁करेगा	-2041
टने	-2042
थि	-2043
▁मुश्	-2044
▁नुकसान	-2045
▁हॉ	-2046
▁प्ले	-2047
अप	-2048
▁मगर	-2049
चारियों	-2050
▁लड़की	-2051
▁सिद्ध	-2052
▁परिणाम	-2053
▁वेबसाइट	-2054
▁पैदा	-2055
सं	-2056
▁दिस	-2057
▁तुल	-2058
▁अभिने	-2059
▁सुधार	-2060
▁खुश	-2061
▁दिशा	-2062
▁वोट	-2063
▁खाने	-2064
साय	-2065
दर	-2066
▁गुण	-2067
▁तुम्ह	-2068
▁जनवरी	-2069
▁न्यायालय	-2070
ंदगी	-2071
▁हरिया	-2072
▁अप्रैल	-2073
▁पुत्र	-2074
▁1	-2075
▁आंद	-2076
स्ल	-2077
ष्ट्र	-2078
▁बंग	-2079
ूड	-2080
▁राज्यों	-2081
▁इतिहास	-2082
▁आदमी	-2083
▁जाकर	-2084
▁दक्षिण	-2085
▁वैसे	-2086
▁निवेश	-2087
▁दिवस	-2088
ूर्ति	-2089
▁सारे	-2090
▁निर्णय	-2091
घा	-2092
▁संत	-2093
▁टिक	-2094
र्न	-2095
ंव	-2096
ित्व	-2097
म्बर	-2098
धिकारी	-2099
प्ताह	-2100
िप	-2101
▁‘‘	-2102
▁किलो	-2103
▁नौकरी	-2104
▁नम	-2105
तमान	-2106
लू	-2107
▁अदालत	-2108
दीप	-2109
▁पर्या	-2110
▁कृषि	-2111
▁सांसद	-2112
▁शायद	-2113
▁विश्वविद्यालय	-2114
असल	-2115
▁घा	-2116
जाम	-2117
िकता	-2118
▁कैं	-2119
▁फॉ	-2120
▁चरण	-2121
▁लोकसभा	-2122
▁न्याय	-2123
▁पुरु	-2124
▁मुश्किल	-2125
▁विस्त	-2126
हान	-2127
▁मं	-2128
’’	-2129
▁मिलेगा	-2130
नगर	-2131
▁प्रसाद	-2132
न्स	-2133
▁स्मार्ट	-2134
▁कर्मचारियों	-2135
चारी	-2136
तृत्व	-2137
▁शान	-2138
जिट	-2139
सों	-2140
▁क्षेत्रों	-2141
▁सैन	-2142
▁वार	-2143
▁पॉ	-2144
ेंसी	-2145
स्ते	-2146
ियाँ	-2147
▁दरअसल	-2148
▁मौसम	-2149
▁समी	-2150
▁सफलता	-2151
▁रू	-2152
रु	-2153
▁विजय	-2154
▁तेजी	-2155
▁गर्म	-2156
▁आती	-2157
त्ती	-2158
कारा	-2159
▁संयुक्त	-2160
▁दबा	-2161
▁श्रे	-2162
▁बदलाव	-2163
▁पुरुष	-2164
▁सिर	-2165
▁कश्मीर	-2166
▁महान	-2167
▁खर्च	-2168
▁बल्ले	-2169
▁गुजरात	-2170
▁फी	-2171
साह	-2172
▁जागर	-2173
▁सजा	-2174
विष्य	-2175
▁जिसका	-2176
▁पल	-2177
▁कपूर	-2178
▁नदी	-2179
शील	-2180
▁असर	-2181
▁वर्तमान	-2182
जनों	-2183
▁भविष्य	-2184
वंबर	-2185
▁प्ल	-2186
▁नेतृत्व	-2187
▁इलाके	-2188
ौती	-2189
▁संस	-2190
▁तैयारी	-2191
साथ	-2192
ेन	-2193
▁वीं	-2194
▁हिन्द	-2195
▁इन्	-2196
▁अपराध	-2197
ड़ियों	-2198
▁संवाद	-2199
▁पड़ता	-2200
▁नवंबर	-2201
क्टूबर	-2202
▁सुप्रीम	-2203
खे	-2204
प्प	-2205
▁अपन	-2206
▁इनमें	-2207
ेश्वर	-2208
क्सर	-2209
चीत	-2210
▁जरिए	-2211
▁सामना	-2212
ेद	-2213
▁केस	-2214
ैया	-2215
▁स्टेशन	-2216
ॉय	-2217
▁साइ	-2218
▁जता	-2219
▁आंदोलन	-2220
▁पृ	-2221
▁संस्थान	-2222
▁अक्टूबर	-2223
▁संभावना	-2224
ूरत	-2225
▁सूची	-2226
▁कमा	-2227
▁अंक	-2228
▁बर्	-2229
▁बेटे	-2230
▁राजा	-2231
▁डाय	-2232
▁शराब	-2233
▁संस्क	-2234
ंटी	-2235
▁जैसा	-2236
जरी	-2237
▁बातचीत	-2238
ॉन	-2239
▁कैम	-2240
बोध	-2241
▁इंत	-2242
▁सत	-2243
ुप	-2244
▁ज्ञान	-2245
▁अग्र	-2246
स्टर	-2247
▁सत्ता	-2248
▁मिलता	-2249
लोड	-2250
▁पौ	-2251
▁दावा	-2252
ठा	-2253
▁शासन	-2254
▁अश	-2255
बाज	-2256
त्मा	-2257
जु	-2258
▁आयु	-2259
सन	-2260
▁साबित	-2261
▁सितंबर	-2262
बीआई	-2263
▁चयन	-2264
▁मानव	-2265
डल	-2266
▁मामलों	-2267
▁हरियाणा	-2268
न्दी	-2269
▁कही	-2270
▁कारो	-2271
षद	-2272
▁लाइ	-2273
▁तभी	-2274
▁वाहन	-2275
▁गृह	-2276
▁स्पष्ट	-2277
न्होंने	-2278
▁करन	-2279
▁वें	-2280
▁उसमें	-2281
▁मजबूत	-2282
▁मध	-2283
▁रव	-2284
▁दूसरा	-2285
▁विकल्प	-2286
ियोग	-2287
▁पहुंची	-2288
▁पढ़ें	-2289
विड	-2290
▁दश	-2291
▁सप्ताह	-2292
हित	-2293
र्जा	-2294
▁तकनी	-2295
▁मानस	-2296
▁सभा	-2297
फोन	-2298
▁धी	-2299
▁आपने	-2300
▁काल	-2301
▁विश्वास	-2302
▁अंग्रे	-2303
▁दवा	-2304
वाही	-2305
▁पार्	-2306
▁खराब	-2307
▁नियंत्र	-2308
▁रक्षा	-2309
▁देती	-2310
राह	-2311
▁खिलाड़ी	-2312
ट्ट	-2313
ितों	-2314
▁आवश्यकता	-2315
▁दिला	-2316
▁विद्यालय	-2317
फल	-2318
ँच	-2319
▁वास्तव	-2320
गंज	-2321
श्न	-2322
▁डर	-2323
▁घु	-2324
▁कप्ता	-2325
▁आंक	-2326
ैर	-2327
सु	-2328
▁शुभ	-2329
▁चाहता	-2330
▁भो	-2331
वाली	-2332
▁स्थापित	-2333
▁उत्तरा	-2334
▁प्रतिनि	-2335
स्त्र	-2336
केश	-2337
▁ठा	-2338
▁भ्र	-2339
र्गत	-2340
▁साहित्य	-2341
▁रिली	-2342
▁फल	-2343
उट	-2344
त्त	-2345
▁शब्द	-2346
▁गठ	-2347
जीत	-2348
रिक्त	-2349
▁इंग	-2350
स्लिम	-2351
▁लाइन	-2352
▁दर्द	-2353
▁बताते	-2354
▁अली	-2355
गु	-2356
▁ग्रह	-2357
▁मात्रा	-2358
▁क्	-2359
लेट	-2360
▁हाद	-2361
▁अतिरिक्त	-2362
ारोह	-2363
▁सिल	-2364
ज़र	-2365
▁बिक	-2366
सूस	-2367
▁अनुभव	-2368
▁गौ	-2369
▁जिसकी	-2370
▁राजधानी	-2371
▁अथ	-2372
▁बहु	-2373
िद	-2374
▁ट्वी	-2375
▁समारोह	-2376
▁देखकर	-2377
▁टि	-2378
▁थाने	-2379
▁सलाह	-2380
▁इनके	-2381
▁प्रत्येक	-2382
▁खोल	-2383
▁उद्योग	-2384
▁टीवी	-2385
▁कंपनियों	-2386
न्तु	-2387
ाब	-2388
ोप	-2389
▁हेतु	-2390
▁प्रव	-2391
▁समूह	-2392
▁कठ	-2393
▁तारी	-2394
▁मनु	-2395
उस	-2396
▁तथ	-2397
▁लगाए	-2398
▁मौका	-2399
▁मुक	-2400
▁समान	-2401
▁वित्त	-2402
्प	-2403
▁सुख	-2404
▁परम	-2405
▁राहत	-2406
▁लक्ष्य	-2407
▁शै	-2408
ियार	-2409
ंकी	-2410
दाता	-2411
्मी	-2412
ंकर	-2413
उंड	-2414
▁हल	-2415
अलग	-2416
▁खुला	-2417
▁केन्द्र	-2418
▁नार	-2419
वित	-2420
िरी	-2421
▁योगी	-2422
▁आइ	-2423
▁इतनी	-2424
▁संजय	-2425
▁एफ	-2426
ंडा	-2427
म्मू	-2428
▁फ्ल	-2429
▁मैदान	-2430
▁कर्मचारी	-2431
▁प्रभारी	-2432
▁ओवर	-2433
▁कब	-2434
▁रखते	-2435
ांक	-2436
▁चंद्र	-2437
▁दिसंबर	-2438
▁गर	-2439
ड्ड	-2440
▁जवान	-2441
▁पुन	-2442
▁महाराष्ट्र	-2443
▁धारा	-2444
वेद	-2445
▁श्रद्ध	-2446
▁दोस्तों	-2447
▁मुस्लिम	-2448
▁बातें	-2449
▁निभा	-2450
▁माँ	-2451
▁बाइक	-2452
▁पेट्रोल	-2453
▁अरब	-2454
▁लेना	-2455
▁प्राथम	-2456
▁अने	-2457
▁लंब	-2458
्रह	-2459
▁हमारा	-2460
दु	-2461
शिया	-2462
▁हमले	-2463
▁साध	-2464
▁प्रत	-2465
▁उपाय	-2466
▁फिलहाल	-2467
▁फरवरी	-2468
ज़ा	-2469
▁प्रशिक्ष	-2470
लेख	-2471
▁जम्मू	-2472
▁संर	-2473
नियर	-2474
▁अन्	-2475
रीज	-2476
▁ट्वीट	-2477
▁संभव	-2478
▁करनी	-2479
▁पाने	-2480
▁दम	-2481
▁निर	-2482
▁पत	-2483
ाइल	-2484
▁सलमान	-2485
▁घोषित	-2486
विध	-2487
▁इंग्ल	-2488
▁इंद	-2489
▁भेजा	-2490
▁हिन्दी	-2491
▁आसान	-2492
▁प्रस्त	-2493
▁दोष	-2494
▁दोप	-2495
टो	-2496
▁महसूस	-2497
▁बाबा	-2498
▁करेगी	-2499
▁मतलब	-2500
▁अत	-2501
▁सहायता	-2502
ार्ज	-2503
▁क्षमता	-2504
▁प्रार	-2505
▁चर	-2506
▁भीड़	-2507
▁बजट	-2508
▁चाहे	-2509
▁आखिर	-2510
सव	-2511
▁निर्धार	-2512
▁मुह	-2513
▁बनाकर	-2514
▁मस	-2515
्टर	-2516
्रेट	-2517
▁स्वतंत्र	-2518
स्टम	-2519
▁हल्	-2520
▁वृद्धि	-2521
▁उपा	-2522
भू	-2523
▁डाउन	-2524
▁फा	-2525
▁चैन	-2526
िसर	-2527
▁बढ़ाने	-2528
▁फैसले	-2529
ाये	-2530
▁शांति	-2531
▁सुपर	-2532
▁बेच	-2533
▁विपक्ष	-2534
उंट	-2535
कात	-2536
▁परिवर्	-2537
▁गरीब	-2538
▁छोटी	-2539
▁आनंद	-2540
▁उल	-2541
▁करत	-2542
▁भूमि	-2543
▁इच्छ	-2544
गो	-2545
श्वर	-2546
▁तमाम	-2547
▁पार्ट	-2548
एँ	-2549
ायी	-2550
▁विरा	-2551
▁लड़ा	-2552
चिका	-2553
▁फिल्मों	-2554
▁मेडिकल	-2555
क्कर	-2556
▁आये	-2557
▁उनको	-2558
स्ट्रे	-2559
▁लं	-2560
दिन	-2561
▁क़	-2562
▁खाना	-2563
▁वायरस	-2564
▁निदेश	-2565
िड	-2566
▁परिषद	-2567
▁बुला	-2568
▁फेस	-2569
▁हथ	-2570
▁ग्राह	-2571
▁कब्	-2572
▁स्वीकार	-2573
▁एच	-2574
▁प्रचार	-2575
▁टिकट	-2576
धरी	-2577
सित	-2578
दूर	-2579
▁सारी	-2580
स्म	-2581
▁पैसा	-2582
▁नक	-2583
▁गुप्ता	-2584
मीटर	-2585
▁हालत	-2586
तीश	-2587
▁डॉलर	-2588
▁कोल	-2589
▁गोली	-2590
त्तीस	-2591
ियोजना	-2592
फिक	-2593
▁भवन	-2594
▁जाति	-2595
▁पर्य	-2596
▁चढ़	-2597
▁नो	-2598
▁भीतर	-2599
▁परियोजना	-2600
▁हट	-2601
।'	-2602
▁संक्रमण	-2603
▁अमित	-2604
▁दोपहर	-2605
▁अमेरिकी	-2606
▁अखिल	-2607
▁रखी	-2608
▁चुना	-2609
द्रा	-2610
बि	-2611
▁जोर	-2612
▁उपस्थित	-2613
▁लै	-2614
▁चीज	-2615
▁आसानी	-2616
▁सदस्यों	-2617
वती	-2618
▁याचिका	-2619
▁कथ	-2620
▁ज़र	-2621
▁युद्ध	-2622
▁प्रिय	-2623
▁स्टार	-2624
▁नीति	-2625
त्रियों	-2626
▁तोड़	-2627
कीय	-2628
▁बनाई	-2629
चार्य	-2630
्राम	-2631
राष्ट्रीय	-2632
बुक	-2633
▁तुर	-2634
▁पालन	-2635
▁मिलकर	-2636
▁वर्षों	-2637
▁गोल	-2638
▁शानदार	-2639
▁विदेशी	-2640
ॉट	-2641
▁वर्षीय	-2642
▁बू	-2643
▁भुग	-2644
ियत	-2645
कृति	-2646
ुल्क	-2647
▁बंगाल	-2648
▁अनुमति	-2649
▁विवाह	-2650
ायण	-2651
▁पटना	-2652
नु	-2653
लेक्ट	-2654
▁टा	-2655
▁सुनवाई	-2656
▁भोजन	-2657
▁खड़े	-2658
▁अक्सर	-2659
ष्टा	-2660
▁ष	-2661
▁री	-2662
▁तत्काल	-2663
स्ट्रेलिया	-2664
▁छत्तीस	-2665
▁सुरक्षित	-2666
ोत्	-2667
▁मशीन	-2668
▁प्रेर	-2669
▁आसपास	-2670
रान	-2671
खर	-2672
▁शौ	-2673
▁सुनी	-2674
▁शिक्षक	-2675
भाल	-2676
▁कविता	-2677
रेट	-2678
▁चिंता	-2679
▁भुगतान	-2680
▁कप्तान	-2681
▁बैठे	-2682
▁देंगे	-2683
▁आंख	-2684
▁भावना	-2685
▁रहें	-2686
▁तलाश	-2687
▁खुल	-2688
▁पूछा	-2689
▁रखें	-2690
▁बिग	-2691
▁समाप्त	-2692
▁प्रथम	-2693
▁गीत	-2694
▁विज्ञान	-2695
▁प्रतियोग	-2696
▁अमर	-2697
▁अक	-2698
म्ब	-2699
▁2	-2700
▁गंगा	-2701
चानक	-2702
ुण	-2703
ापन	-2704
▁संपर्क	-2705
▁चौधरी	-2706
▁प्रण	-2707
▁तुलना	-2708
▁मंच	-2709
▁मरीजों	-2710
▁ती	-2711
▁छात्रा	-2712
न्ध	-2713
▁अचानक	-2714
▁परिजनों	-2715
▁मुकाबले	-2716
▁सूर्य	-2717
▁प्ला	-2718
▁दूध	-2719
▁बाकी	-2720
▁क्रम	-2721
▁रचना	-2722
▁कोह	-2723
▁खोज	-2724
▁इन्हें	-2725
▁मुलाकात	-2726
▁छत्तीसगढ़	-2727
▁सीरीज	-2728
दय	-2729
▁किन	-2730
िवार	-2731
छा	-2732
▁परेशानी	-2733
▁उत्पादन	-2734
▁तैना	-2735
▁अका	-2736
▁रिलीज	-2737
▁स्वर	-2738
▁अक्ष	-2739
▁अनेक	-2740
▁पर्व	-2741
▁पुरस्कार	-2742
▁डिग्री	-2743
▁झार	-2744
▁लड़क	-2745
▁रेड	-2746
▁लाने	-2747
▁मतदान	-2748
▁जायेगा	-2749
ंघ	-2750
▁चाहती	-2751
्यूटर	-2752
▁शीर्ष	-2753
▁नारा	-2754
ार्व	-2755
ंतु	-2756
▁फ़िल	-2757
▁बीमारी	-2758
▁विस्तार	-2759
▁गैर	-2760
प्रदेश	-2761
▁चिकित्स	-2762
▁पुस्त	-2763
ौन	-2764
तौर	-2765
▁सूत्रों	-2766
राम	-2767
▁गाँ	-2768
▁पटेल	-2769
▁जिन्हें	-2770
▁पदों	-2771
ाले	-2772
▁कृष्ण	-2773
▁रखना	-2774
कृ	-2775
▁कार्यकर्ताओं	-2776
▁एक्सप	-2777
▁चोरी	-2778
▁मूल्य	-2779
▁आल	-2780
▁चम	-2781
▁बीमार	-2782
्याण	-2783
▁अवै	-2784
▁सत्य	-2785
▁विद्यार्थ	-2786
▁स्म	-2787
सेना	-2788
▁मिलती	-2789
ामद	-2790
थी	-2791
▁संघर्ष	-2792
▁चली	-2793
▁सिक	-2794
▁व्	-2795
▁बीते	-2796
▁सत्र	-2797
▁लौट	-2798
▁पूछता	-2799
बाल	-2800
▁बढ	-2801
ंतर	-2802
ानि	-2803
▁सेवन	-2804
▁चित्र	-2805
▁फायदा	-2806
▁उद्देश	-2807
▁रखे	-2808
▁समाचार	-2809
▁डेट	-2810
▁किर	-2811
त्कार	-2812
ॉग	-2813
▁जिंदगी	-2814
ंदन	-2815
▁धार	-2816
▁प्रश्न	-2817
▁पुराने	-2818
▁कारोबार	-2819
▁प्रबंधन	-2820
वाला	-2821
▁आकर	-2822
▁सालों	-2823
▁इंस्ट	-2824
▁छुट	-2825
▁दर्शन	-2826
▁आईपी	-2827
विंद	-2828
▁मिट	-2829
▁कोविड	-2830
▁आजा	-2831
▁चेहरे	-2832
▁जल्दी	-2833
▁मिलेगी	-2834
▁इंग्लैंड	-2835
▁पकड़	-2836
्मा	-2837
▁लॉन्	-2838
▁प्राइ	-2839
▁विमान	-2840
▁इस्ल	-2841
▁उत्तराखंड	-2842
नेस	-2843
▁मुद्दे	-2844
▁यक	-2845
▁छि	-2846
▁मू	-2847
▁स्वागत	-2848
▁अवैध	-2849
चक	-2850
▁जिल	-2851
▁किताब	-2852
▁लंबे	-2853
▁सहायक	-2854
▁संबोध	-2855
▁रहेंगे	-2856
पट	-2857
▁रहेगी	-2858
कू	-2859
▁रोजगार	-2860
▁हवा	-2861
▁डाउनलोड	-2862
▁उत्पाद	-2863
▁तीनों	-2864
▁सफाई	-2865
▁कड़ी	-2866
▁ग्रामीणों	-2867
▁फूल	-2868
▁निर्धारित	-2869
▁तुरंत	-2870
सिंह	-2871
an	-2872
ैट	-2873
▁दाम	-2874
▁संगीत	-2875
▁निरी	-2876
▁पूर्	-2877
▁हटा	-2878
कुर	-2879
यम	-2880
▁मित्र	-2881
म्मद	-2882
शे	-2883
▁भोपाल	-2884
जित	-2885
▁सार्व	-2886
▁कमज	-2887
▁चलने	-2888
▁वाय	-2889
▁ब्रिट	-2890
▁ऊर्जा	-2891
वाले	-2892
▁संवि	-2893
▁अंतर्गत	-2894
वधान	-2895
▁सिस्टम	-2896
▁खाते	-2897
▁प्रत्या	-2898
▁वायरल	-2899
▁अध्ययन	-2900
▁उल्लेख	-2901
एक	-2902
▁मैने	-2903
फ्र	-2904
ेय	-2905
▁गुर	-2906
▁प्रमाण	-2907
▁कंट	-2908
▁कोहली	-2909
▁दर्श	-2910
▁समुदाय	-2911
▁हिस	-2912
▁दबाव	-2913
▁सुनि	-2914
डर	-2915
▁नह	-2916
▁मंडल	-2917
▁धम	-2918
▁वार्ड	-2919
पुरा	-2920
▁सवार	-2921
▁पड़ी	-2922
प्रिय	-2923
एसपी	-2924
▁वीर	-2925
▁जैन	-2926
▁धीरे	-2927
▁रोकने	-2928
▁आवाज	-2929
द्दी	-2930
कारों	-2931
▁पूछताछ	-2932
▁मीटर	-2933
▁प्री	-2934
▁मक	-2935
▁कल्याण	-2936
▁गाड़ी	-2937
▁आकर्	-2938
वस्था	-2939
लाल	-2940
▁संस्कृति	-2941
▁रिश्ते	-2942
दारों	-2943
्न	-2944
▁आधारित	-2945
▁रास्ते	-2946
▁नेट	-2947
▁इतने	-2948
▁धार्म	-2949
बंदी	-2950
▁शिकार	-2951
▁मुक्त	-2952
▁टर	-2953
▁अपील	-2954
▁सीधे	-2955
▁अंतरराष्ट्रीय	-2956
▁उतर	-2957
▁स्कूलों	-2958
▁लगने	-2959
ैंप	-2960
▁जहाँ	-2961
▁किलोमीटर	-2962
▁प्रती	-2963
पद	-2964
▁पारी	-2965
▁कराई	-2966
▁पदा	-2967
बीर	-2968
▁कक्षा	-2969
▁सपा	-2970
ेंज	-2971
▁ज्यो	-2972
।"	-2973
▁मनुष्य	-2974
▁नै	-2975
▁लु	-2976
▁सीटों	-2977
in	-2978
▁उनमें	-2979
सीसी	-2980
▁बहा	-2981
ष्टाचार	-2982
▁प्रस्तुत	-2983
▁किश	-2984
▁तीसरे	-2985
▁जिनमें	-2986
श्वास	-2987
▁स्वामी	-2988
ंजन	-2989
▁हाथों	-2990
वै	-2991
मित	-2992
▁संसद	-2993
▁घट	-2994
▁मात्र	-2995
काम	-2996
▁परिवर्तन	-2997
▁फेसबुक	-2998
▁सेंटर	-2999
▁धार्मिक	-3000
िवर्स	-3001
▁जू	-3002
तलब	-3003
▁झारखंड	-3004
▁ट्रै	-3005
▁सुनिश्चित	-3006
▁मास	-3007
▁सामग्री	-3008
▁जिन्होंने	-3009
▁अथवा	-3010
▁पन	-3011
▁सुंदर	-3012
ेक्ट	-3013
▁स्थापना	-3014
▁उद्देश्य	-3015
▁थोड़ा	-3016
▁पढ़ाई	-3017
▁बरामद	-3018
ानों	-3019
▁वैज्ञान	-3020
ेलन	-3021
▁पाई	-3022
▁पीड़ित	-3023
शाला	-3024
▁जिम्मेदारी	-3025
▁हिस्से	-3026
▁नियंत्रण	-3027
जनिक	-3028
्सा	-3029
रीन	-3030
वनी	-3031
▁शोध	-3032
▁वस्त	-3033
पुरी	-3034
▁संके	-3035
▁प्रशिक्षण	-3036
▁वर्मा	-3037
▁घरों	-3038
▁बहन	-3039
▁s	-3040
▁शूट	-3041
▁मकान	-3042
▁ठाकुर	-3043
▁विराट	-3044
▁आवास	-3045
र्श	-3046
▁उपचार	-3047
▁चीनी	-3048
▁भि	-3049
▁सां	-3050
▁एजेंसी	-3051
▁सीबीआई	-3052
▁घरे	-3053
▁उन्	-3054
▁अशोक	-3055
्रेड	-3056
▁जोड़	-3057
▁इंसान	-3058
▁कार्यों	-3059
पान	-3060
प्ति	-3061
▁परिसर	-3062
ढ़ी	-3063
▁खड़ा	-3064
्रिय	-3065
बो	-3066
ाहरण	-3067
▁मरीज	-3068
▁फुट	-3069
▁विकसित	-3070
द्द	-3071
▁छूट	-3072
▁एव	-3073
ंची	-3074
▁पहन	-3075
▁इनकी	-3076
▁जिलों	-3077
▁स्थल	-3078
▁युवाओं	-3079
▁सेट	-3080
▁t	-3081
▁सार्वजनिक	-3082
▁लॉन्च	-3083
दर्श	-3084
▁भूल	-3085
▁मजदूर	-3086
▁प्लान	-3087
▁आरोपियों	-3088
पन्न	-3089
▁लगाई	-3090
▁सब्	-3091
प्स	-3092
िवारी	-3093
▁अय	-3094
कारात्मक	-3095
▁जमकर	-3096
ूनी	-3097
चि	-3098
▁गू	-3099
▁आदित्य	-3100
▁उनक	-3101
▁सक्रिय	-3102
▁एसपी	-3103
्यास	-3104
▁कितना	-3105
▁गैस	-3106
▁भले	-3107
▁चुनौती	-3108
▁अके	-3109
माश	-3110
▁मिश्रा	-3111
▁अवधि	-3112
नाम	-3113
▁तिवारी	-3114
▁ज्योति	-3115
▁मिश्र	-3116
▁प्रतिक	-3117
▁ग्रुप	-3118
▁भरो	-3119
▁संकट	-3120
▁निर्मा	-3121
▁गौरतलब	-3122
▁बंध	-3123
ताप	-3124
▁कार्यकर्ता	-3125
पत्र	-3126
▁भ्रष्टाचार	-3127
▁तनाव	-3128
ज़ार	-3129
▁रहना	-3130
▁मिस	-3131
▁देखें	-3132
▁स्मार्टफोन	-3133
▁जला	-3134
नाक	-3135
▁सच्च	-3136
▁मुकद	-3137
बद्ध	-3138
▁उड़	-3139
पत	-3140
▁हिंदू	-3141
▁खाली	-3142
▁इंतजार	-3143
▁लगाकर	-3144
▁नेशनल	-3145
्वि	-3146
▁मनाया	-3147
▁हिंसा	-3148
ेड़	-3149
बारी	-3150
▁आउट	-3151
▁इम	-3152
▁अजय	-3153
▁ऑस्ट्रेलिया	-3154
▁विज्ञ	-3155
यल	-3156
▁उदाहरण	-3157
▁कमे	-3158
▁घूम	-3159
▁वेतन	-3160
▁गत	-3161
▁सुल	-3162
▁समाधान	-3163
जरीवाल	-3164
▁विल	-3165
▁मृत्यु	-3166
▁सीख	-3167
▁समस्याओं	-3168
▁इंटरनेट	-3169
▁निदेशक	-3170
ेन्द्र	-3171
िग	-3172
▁पहा	-3173
▁चिकित्सा	-3174
▁पैर	-3175
दाबाद	-3176
▁दूरी	-3177
▁मेहन	-3178
▁टूट	-3179
▁संदेश	-3180
ड्	-3181
▁एशिया	-3182
▁उपकरण	-3183
बत	-3184
▁लोकप्रिय	-3185
एसटी	-3186
ोने	-3187
▁खूबस	-3188
▁सम्मेलन	-3189
▁केजरीवाल	-3190
▁आँ	-3191
थर	-3192
▁शन	-3193
▁हरा	-3194
▁मुद्रा	-3195
चु	-3196
▁गी	-3197
▁कॉल	-3198
न्दर	-3199
▁ताप	-3200
मैन	-3201
शिप	-3202
▁हालात	-3203
▁सिटी	-3204
विल	-3205
▁चलता	-3206
▁कले	-3207
।’	-3208
▁सख	-3209
▁समीक्षा	-3210
▁प्रकाशित	-3211
▁लोगो	-3212
▁टाइम	-3213
▁होटल	-3214
▁फ़िल्म	-3215
▁अध्या	-3216
▁माइ	-3217
▁कोच	-3218
▁संविधान	-3219
▁मस्	-3220
▁करो	-3221
▁तैनात	-3222
▁जुड़ी	-3223
संग	-3224
कल्प	-3225
▁होनी	-3226
▁समझौ	-3227
▁ऑफिस	-3228
▁आखिरी	-3229
ॉम	-3230
▁बचाने	-3231
▁अंदा	-3232
िक्र	-3233
▁घरेलू	-3234
▁माहौल	-3235
▁हाउस	-3236
▁स्वच्छ	-3237
▁क्ला	-3238
▁खुशी	-3239
▁वहाँ	-3240
्रिक	-3241
न्या	-3242
▁फसल	-3243
▁सॉ	-3244
▁जयपुर	-3245
▁झू	-3246
▁मुसल	-3247
▁बिक्री	-3248
▁उपभ	-3249
▁समझा	-3250
▁बढ़ने	-3251
▁प्रतियोगिता	-3252
▁अज	-3253
▁इंजी	-3254
▁सकें	-3255
▁नती	-3256
▁सोन	-3257
▁काट	-3258
▁सोने	-3259
▁अफसर	-3260
▁जनरल	-3261
▁संबोधित	-3262
▁हादसे	-3263
ूँ	-3264
खों	-3265
वासियों	-3266
▁ट्वि	-3267
▁बोले	-3268
▁कमेटी	-3269
षित	-3270
▁मानना	-3271
▁चोट	-3272
▁दाख	-3273
▁नाग	-3274
▁वार्	-3275
▁क्लिक	-3276
▁निर्म	-3277
ल्ल	-3278
▁गईं	-3279
▁सभ	-3280
▁रिट	-3281
▁व्यवहार	-3282
▁चौहान	-3283
▁असम	-3284
▁सर्वे	-3285
▁खी	-3286
▁यूनिवर्स	-3287
▁उचित	-3288
▁हिसाब	-3289
▁हथियार	-3290
▁पढ़े	-3291
▁पहुंचने	-3292
▁दीप	-3293
▁कमल	-3294
जूदा	-3295
वें	-3296
▁अनिल	-3297
जो	-3298
▁नवा	-3299
▁झा	-3300
▁इलेक्ट	-3301
er	-3302
▁राजी	-3303
▁लड़ाई	-3304
▁विशेषज्ञ	-3305
▁पांडे	-3306
रद	-3307
▁टैक्स	-3308
▁प्रे	-3309
▁निर्वा	-3310
▁मॉडल	-3311
▁ड्राइ	-3312
▁व्यवसाय	-3313
मैं	-3314
क्का	-3315
कोर्ट	-3316
▁त्व	-3317
▁अंग्रेजी	-3318
▁यम	-3319
लाब	-3320
▁नीतीश	-3321
ध्या	-3322
▁कहने	-3323
पीट	-3324
▁हिन्दू	-3325
▁ज्यादातर	-3326
थे	-3327
वाने	-3328
▁मौजूदा	-3329
देन	-3330
▁इलाकों	-3331
ंटर	-3332
यात	-3333
▁मिलते	-3334
कम	-3335
▁मेह	-3336
ुनिक	-3337
ेंडर	-3338
र्द	-3339
▁होम	-3340
▁लॉक	-3341
▁मनो	-3342
वेज	-3343
गन	-3344
▁राव	-3345
▁इच्छा	-3346
जिए	-3347
शोध	-3348
▁पंड	-3349
▁खिलाड़ियों	-3350
्मण	-3351
▁गठन	-3352
▁अनुर	-3353
▁लूट	-3354
▁रैली	-3355
▁फे	-3356
▁यात्रियों	-3357
▁ब्रह	-3358
▁नागरिक	-3359
्तीय	-3360
▁इसक	-3361
पूर्व	-3362
▁शिक्षकों	-3363
बन्ध	-3364
▁बढ़ती	-3365
▁अग्रवाल	-3366
▁त्वचा	-3367
▁प्रतिबंध	-3368
▁अखिलेश	-3369
▁हिमा	-3370
▁कमरे	-3371
सिद्ध	-3372
▁तत्व	-3373
▁प्रभा	-3374
नाटक	-3375
टका	-3376
▁महिलाएं	-3377
▁निश्चित	-3378
▁चैनल	-3379
▁सेक	-3380
स्थिति	-3381
▁सप	-3382
▁वाहनों	-3383
▁आतंकवाद	-3384
▁नज	-3385
▁प्रवक्ता	-3386
▁जाएं	-3387
साइ	-3388
मेल	-3389
▁बांध	-3390
्यूट	-3391
▁बनाना	-3392
बारा	-3393
▁खुलासा	-3394
▁मनी	-3395
▁नज़र	-3396
▁संबंधी	-3397
▁गुल	-3398
▁कथा	-3399
तः	-3400
काता	-3401
▁बातों	-3402
▁थोड़ी	-3403
▁मेहनत	-3404
ाइड	-3405
▁सड़	-3406
▁मुसलमान	-3407
ेंशन	-3408
स्तानी	-3409
शाली	-3410
▁योगदान	-3411
▁फो	-3412
स्ट्री	-3413
रत	-3414
्याज	-3415
▁नियमित	-3416
▁तहसी	-3417
ांच	-3418
▁कंप्यूटर	-3419
▁लक	-3420
▁साहब	-3421
▁केरल	-3422
पाद	-3423
▁दलों	-3424
▁अत्य	-3425
ढ़े	-3426
▁प्रबंध	-3427
▁p	-3428
▁श्रम	-3429
िनी	-3430
▁तू	-3431
▁जाह	-3432
माने	-3433
▁इंजीनियर	-3434
डाउन	-3435
▁नाराज	-3436
▁डो	-3437
▁वित्तीय	-3438
▁बदमाश	-3439
▁मालिक	-3440
ोग्राम	-3441
वत्ता	-3442
▁कमजोर	-3443
▁कर्नाटक	-3444
▁यूरो	-3445
▁रणनी	-3446
▁रास्ता	-3447
▁चालक	-3448
▁कितने	-3449
▁रजिस्ट	-3450
▁शही	-3451
▁नवी	-3452
▁ब्लॉग	-3453
▁गे	-3454
ग्राम	-3455
बान	-3456
▁बेहत	-3457
▁निरा	-3458
▁मिलाकर	-3459
▁बुरा	-3460
▁सन्	-3461
▁वजन	-3462
▁शास	-3463
▁पड़ेगा	-3464
▁चौक	-3465
▁फाइनल	-3466
▁पृथ	-3467
ग्रह	-3468
▁देगा	-3469
▁संगठ	-3470
▁विन	-3471
▁खंड	-3472
▁रक्त	-3473
वानी	-3474
ट्स	-3475
▁मोहम्मद	-3476
पथ	-3477
दरा	-3478
▁रोम	-3479
▁जिनके	-3480
्रत	-3481
▁दीपक	-3482
▁मंजू	-3483
▁स्थानों	-3484
▁पदार्थ	-3485
▁योजनाओं	-3486
▁त्रि	-3487
▁आतंकी	-3488
▁टिप्प	-3489
ांसी	-3490
▁मध्यप्रदेश	-3491
हल	-3492
▁पुरानी	-3493
्वा	-3494
▁टीका	-3495
▁वैक्सी	-3496
ठे	-3497
दियों	-3498
दल	-3499
▁शुल्क	-3500
▁संकेत	-3501
▁गुजर	-3502
घर	-3503
▁करियर	-3504
▁न्यूज	-3505
▁भक्त	-3506
▁मार्केट	-3507
▁अभिनेता	-3508
▁एक्सप्रेस	-3509
▁कोलकाता	-3510
हि	-3511
▁मुझ	-3512
▁गुणवत्ता	-3513
▁जागरूक	-3514
कुमार	-3515
▁उठाया	-3516
▁प्रेस	-3517
ंजी	-3518
क्रो	-3519
व्यवस्था	-3520
▁लागत	-3521
▁दिये	-3522
▁प्लेट	-3523
वीं	-3524
▁उतार	-3525
कोर	-3526
▁शहरों	-3527
▁लगती	-3528
बादी	-3529
▁मुंह	-3530
▁दृष्टि	-3531
▁संचालन	-3532
▁ब्ला	-3533
▁यूनिवर्सिटी	-3534
▁अनुमान	-3535
पण	-3536
▁ट्रांस	-3537
▁एसडी	-3538
▁हफ्	-3539
▁नोटिस	-3540
चीन	-3541
▁कने	-3542
गांव	-3543
▁गणेश	-3544
दो	-3545
्रिया	-3546
मती	-3547
▁निष्	-3548
्ब	-3549
▁शख	-3550
▁सम्मानित	-3551
▁शुक्	-3552
▁प्रियंका	-3553
ांश	-3554
नतम	-3555
▁प्रदू	-3556
▁ज़्यादा	-3557
▁तहसील	-3558
एंगे	-3559
▁गठबंधन	-3560
▁उधर	-3561
▁सेक्टर	-3562
▁हां	-3563
जनक	-3564
▁बजाय	-3565
घटना	-3566
त्रि	-3567
▁अल्	-3568
निक	-3569
▁गोर	-3570
▁पंजी	-3571
----	-3572
्कुल	-3573
▁नियमों	-3574
▁मुख्यालय	-3575
वेयर	-3576
िमिट	-3577
▁आना	-3578
▁हाईकोर्ट	-3579
▁विद	-3580
▁देखना	-3581
▁बच्ची	-3582
म्भ	-3583
▁बाढ़	-3584
▁वकी	-3585
▁हिमाचल	-3586
▁विवे	-3587
▁पेड़	-3588
▁दस्ता	-3589
▁आलो	-3590
▁स्टेट	-3591
▁पव	-3592
▁चुनावों	-3593
▁मारे	-3594
▁मान्यता	-3595
on	-3596
▁शक	-3597
▁कू	-3598
▁खतरा	-3599
▁स्टूड	-3600
▁श्रेणी	-3601
▁छोड़कर	-3602
▁सारा	-3603
▁पर्यावरण	-3604
▁गाँव	-3605
▁विरोधी	-3606
▁कितनी	-3607
▁अंध	-3608
▁प्रसार	-3609
▁प्रणाली	-3610
▁बिल्कुल	-3611
▁प्रोड	-3612
▁किरदार	-3613
▁उपभो	-3614
इयों	-3615
▁c	-3616
▁विभा	-3617
कुल	-3618
हम	-3619
ंश	-3620
ैंस	-3621
▁इंडियन	-3622
▁कपड़े	-3623
▁बध	-3624
▁परीक्षण	-3625
▁किरा	-3626
▁चंद	-3627
▁गेम	-3628
▁उम्मीदवारों	-3629
▁गांवों	-3630
ar	-3631
डु	-3632
▁भरा	-3633
▁दिखाया	-3634
▁“	-3635
▁आगामी	-3636
वेट	-3637
▁उत्साह	-3638
▁फें	-3639
▁लड़कियों	-3640
▁कस	-3641
▁सका	-3642
▁वस	-3643
ज़ी	-3644
▁एप	-3645
▁बेहतरीन	-3646
▁फायदे	-3647
▁बरा	-3648
▁डिजिट	-3649
▁कोत	-3650
▁मनोज	-3651
▁प्रोज	-3652
▁गतिविध	-3653
हारी	-3654
हे	-3655
तें	-3656
युक्त	-3657
▁डिजा	-3658
▁तमिल	-3659
▁संशोध	-3660
▁संपत्ति	-3661
▁ट्रंप	-3662
पेट	-3663
▁मानते	-3664
▁रहीं	-3665
ोषण	-3666
▁दलित	-3667
▁बचाव	-3668
▁हफ्ते	-3669
ज्ज	-3670
▁दरवा	-3671
▁वॉ	-3672
▁घोट	-3673
▁वितरण	-3674
▁राजेश	-3675
▁जाम	-3676
▁इनका	-3677
दिक	-3678
▁दौरे	-3679
▁सकेंगे	-3680
लैंड	-3681
सीय	-3682
ंडे	-3683
वाय	-3684
▁नक्स	-3685
▁बाग	-3686
▁तारीख	-3687
▁नेपाल	-3688
▁खेती	-3689
ैनिक	-3690
▁दान	-3691
▁सिने	-3692
स्कृत	-3693
▁ग़	-3694
▁बैंकों	-3695
▁ट्विटर	-3696
▁वार्ता	-3697
नै	-3698
▁विशाल	-3699
▁तिथि	-3700
▁दाय	-3701
▁एका	-3702
▁जिसने	-3703
▁कहां	-3704
वली	-3705
▁फैला	-3706
▁हजारों	-3707
▁आशा	-3708
▁उसको	-3709
▁ट्रक	-3710
ब्र	-3711
▁प्रि	-3712
▁स्वस्थ	-3713
▁खुले	-3714
▁लाखों	-3715
जीव	-3716
▁दुर्घटना	-3717
▁छोटा	-3718
▁बांग	-3719
▁लिस्ट	-3720
▁रद	-3721
▁चारों	-3722
▁वायु	-3723
बु	-3724
ानु	-3725
▁बें	-3726
कर्ता	-3727
▁प्रारंभ	-3728
▁काउ	-3729
गण	-3730
र्ज	-3731
▁आपूर्ति	-3732
▁प्रसिद्ध	-3733
लान	-3734
▁डायरे	-3735
▁अखबार	-3736
▁किनारे	-3737
▁दिग्	-3738
▁घुस	-3739
▁जंग	-3740
▁अकाउंट	-3741
▁शूटिंग	-3742
▁निशाना	-3743
▁’	-3744
हाबाद	-3745
▁गाने	-3746
▁रोहित	-3747
▁सड़कों	-3748
मि	-3749
▁मानसिक	-3750
▁अफ्री	-3751
▁टू	-3752
▁साथी	-3753
ंपरा	-3754
▁ऐप	-3755
णे	-3756
ंचाई	-3757
▁बोला	-3758
रेन्द्र	-3759
▁गुस्	-3760
▁वर्ल्ड	-3761
गाह	-3762
▁स्वतंत्रता	-3763
▁सुनील	-3764
डि	-3765
पिता	-3766
माग	-3767
▁लिंक	-3768
▁पुस्तक	-3769
▁अध्यक्षता	-3770
▁तापमान	-3771
निर्	-3772
▁चै	-3773
▁दशक	-3774
▁मारपीट	-3775
िरा	-3776
▁मिशन	-3777
गरी	-3778
▁कां	-3779
▁पर्	-3780
तो	-3781
▁चाय	-3782
▁हवाई	-3783
▁फ्री	-3784
▁शब्दों	-3785
▁कथित	-3786
▁रिज	-3787
▁हित	-3788
▁करण	-3789
रावट	-3790
▁फरार	-3791
▁चू	-3792
▁वापसी	-3793
तिहासिक	-3794
▁इस्लाम	-3795
▁काले	-3796
▁साइट	-3797
▁बेस	-3798
▁चेता	-3799
▁पुष्टि	-3800
▁कॉन्	-3801
▁शख्स	-3802
▁बताने	-3803
▁गिरावट	-3804
▁संसा	-3805
▁ग्ल	-3806
▁पाते	-3807
▁पदक	-3808
▁चलाने	-3809
▁ताकत	-3810
▁ग्रहण	-3811
▁शिविर	-3812
▁कैमरा	-3813
▁विधि	-3814
▁जिम्मेदार	-3815
▁इधर	-3816
▁तस्वीरें	-3817
▁लय	-3818
▁अभिनेत्री	-3819
▁परंपरा	-3820
▁''	-3821
▁डीएम	-3822
▁प्राथमिक	-3823
▁खाद्य	-3824
▁राजीव	-3825
."	-3826
धीश	-3827
▁ब्रे	-3828
▁आशी	-3829
▁लगते	-3830
▁तरीका	-3831
घु	-3832
पक्ष	-3833
मल	-3834
▁पर्याप्त	-3835
▁टन	-3836
▁लेखक	-3837
▁मैचों	-3838
धिकारिक	-3839
िमा	-3840
▁भरोसा	-3841
▁हरी	-3842
▁पोर्ट	-3843
▁राज्यपाल	-3844
दास	-3845
▁प्रत्याशी	-3846
▁रिस	-3847
▁दिक	-3848
▁डिजिटल	-3849
िमिटेड	-3850
िको	-3851
▁धा	-3852
▁शारी	-3853
▁अधी	-3854
▁अर्ज	-3855
▁पीने	-3856
▁कमाई	-3857
▁उपाध्यक्ष	-3858
▁मजब	-3859
▁लंबी	-3860
▁--	-3861
▁मण	-3862
▁नामक	-3863
▁बौ	-3864
▁परन्तु	-3865
▁मुकदमा	-3866
▁दुष्	-3867
▁स्त्री	-3868
▁अहमद	-3869
▁प्रतिक्रिया	-3870
▁सौं	-3871
ारण	-3872
▁फैल	-3873
▁हड़	-3874
▁लक्ष्मी	-3875
दर्भ	-3876
▁चुनावी	-3877
▁प्रतिनिध	-3878
▁हरि	-3879
कृतिक	-3880
▁जानने	-3881
▁आह	-3882
▁सेल	-3883
▁धमकी	-3884
▁ग्राहकों	-3885
▁मशह	-3886
▁स्टी	-3887
▁इमर	-3888
▁प्रोजेक्ट	-3889
▁बजा	-3890
▁घाट	-3891
▁आशंका	-3892
▁अट	-3893
नेश	-3894
▁एक्ट्रेस	-3895
टरी	-3896
▁कर्ज	-3897
▁पार्क	-3898
गति	-3899
▁माने	-3900
▁आधिकारिक	-3901
▁सुझा	-3902
▁मंजूरी	-3903
▁डिजाइन	-3904
▁साझा	-3905
सच	-3906
▁प्रतिनिधि	-3907
▁रोल	-3908
स्त्री	-3909
▁संग्रह	-3910
▁निरीक्षण	-3911
▁प्रताप	-3912
▁अभिय	-3913
वर्क	-3914
▁यर	-3915
▁नयी	-3916
▁इंदौर	-3917
▁आरक्षण	-3918
फॉ	-3919
ाइट	-3920
▁डेटा	-3921
स्तर	-3922
▁बधाई	-3923
▁अंब	-3924
▁ठे	-3925
▁रिकॉर्डर	-3926
िएशन	-3927
▁इस्ती	-3928
▁हुये	-3929
्रमण	-3930
डियो	-3931
्यूटी	-3932
▁डाला	-3933
▁ईश्वर	-3934
▁पोल	-3935
▁फायर	-3936
क्षम	-3937
▁गर्मी	-3938
र्डर	-3939
▁फार्म	-3940
▁दब	-3941
▁शारीरिक	-3942
▁खत	-3943
गज	-3944
▁दुख	-3945
▁पृथ्वी	-3946
▁ब्रा	-3947
al	-3948
▁पढ	-3949
▁लिहा	-3950
▁अना	-3951
▁युवती	-3952
▁बांग्ला	-3953
भूम	-3954
्याम	-3955
्द	-3956
▁दास	-3957
▁मशहूर	-3958
▁ममता	-3959
▁लालू	-3960
▁कामया	-3961
▁दिक्क	-3962
▁तार	-3963
▁कार्यवाही	-3964
▁इका	-3965
▁महाराज	-3966
▁निधन	-3967
▁प्रतिष्ठ	-3968
▁चेक	-3969
▁संरक्षण	-3970
▁चक्र	-3971
▁खूबसूरत	-3972
मार्	-3973
▁वर्ण	-3974
▁जितना	-3975
▁कैंसर	-3976
▁अर्था	-3977
▁हनु	-3978
ग्ध	-3979
▁इसको	-3980
ाफ	-3981
▁अंजाम	-3982
▁एंटी	-3983
▁माया	-3984
▁खड़ी	-3985
▁महामारी	-3986
▁बालों	-3987
▁ओपन	-3988
▁खरीदने	-3989
▁फर्जी	-3990
▁जरुर	-3991
ुक्ति	-3992
िनियम	-3993
शनी	-3994
ूत	-3995
▁इट	-3996
▁लॉकडाउन	-3997
स्य	-3998
▁जीएसटी	-3999
▁क्रिया	-4000
▁पीसी	-4001
▁संभाल	-4002
द्दीन	-4003
▁काला	-4004
▁संक्रमित	-4005
▁नये	-4006
▁कम्प	-4007
▁जीतने	-4008
▁गेट	-4009
▁तल	-4010
ेंट्स	-4011
▁पहुँच	-4012
जात	-4013
at	-4014
▁प्रदूषण	-4015
▁ऐतिहासिक	-4016
▁यूज	-4017
घाटन	-4018
▁उत्पन्न	-4019
▁पशु	-4020
▁प्रकृति	-4021
▁पावर	-4022
▁पढ़ने	-4023
▁शह	-4024
▁आकार	-4025
▁जताई	-4026
▁सपना	-4027
▁रेट	-4028
▁मुफ्त	-4029
or	-4030
▁व्रत	-4031
▁योग्य	-4032
न्हा	-4033
▁जंगल	-4034
वां	-4035
नान	-4036
▁खून	-4037
▁आराम	-4038
▁नारायण	-4039
▁पीठ	-4040
▁जगत	-4041
▁सिनेमा	-4042
▁सीजन	-4043
▁तकनीक	-4044
▁अटल	-4045
▁बच्चा	-4046
ंथ	-4047
ंडर	-4048
▁अरविंद	-4049
▁अमरी	-4050
▁आधुनिक	-4051
▁बीएस	-4052
▁इजा	-4053
▁आदित्यनाथ	-4054
ष्णु	-4055
वारी	-4056
.’	-4057
लिंग	-4058
▁शुरु	-4059
▁सक्षम	-4060
▁कन	-4061
▁संवाददाता	-4062
ेक्षा	-4063
▁बल्लेबाज	-4064
▁फिट	-4065
▁बेर	-4066
▁खेलने	-4067
▁अफग	-4068
▁आबादी	-4069
▁मोटर	-4070
▁बीज	-4071
फान	-4072
▁कोरिया	-4073
▁दोबारा	-4074
▁पत्रकारों	-4075
हत्या	-4076
▁दिमाग	-4077
▁छाप	-4078
ंती	-4079
▁उक्त	-4080
▁अर्थव्यवस्था	-4081
▁रूस	-4082
▁शहीद	-4083
▁बढ़कर	-4084
▁डीजल	-4085
प्ट	-4086
▁क्लब	-4087
▁माय	-4088
▁चोर	-4089
▁लाया	-4090
▁प्राकृतिक	-4091
▁तन	-4092
▁व्यापक	-4093
▁सस	-4094
▁लव	-4095
▁अभिन	-4096
▁नियुक्त	-4097
▁मजबूर	-4098
▁बढ़ते	-4099
▁आईपीएल	-4100
▁समाजवादी	-4101
टिंग	-4102
▁एसोस	-4103
▁टक	-4104
▁संस्कार	-4105
▁लीटर	-4106
▁बुरी	-4107
मेर	-4108
पि	-4109
▁कलेक्टर	-4110
जिद	-4111
▁कव	-4112
▁बदलने	-4113
▁रानी	-4114
हो	-4115
▁किशोर	-4116
▁बाय	-4117
▁फॉर्म	-4118
▁अभ्य	-4119
▁मिट्टी	-4120
न्व	-4121
▁श्रील	-4122
▁मोहन	-4123
▁करार	-4124
स्टिक	-4125
▁मच	-4126
शित	-4127
▁विद्यार्थियों	-4128
▁दौड़	-4129
▁तकनीकी	-4130
पात	-4131
▁कोतवाली	-4132
▁जुट	-4133
▁राकेश	-4134
श्विक	-4135
▁ब्लॉक	-4136
▁लेता	-4137
▁सौंप	-4138
▁लेंगे	-4139
गीय	-4140
▁दह	-4141
▁करवाया	-4142
▁जाहिर	-4143
▁अधीक्षक	-4144
सचिव	-4145
▁भोज	-4146
▁परमेश्वर	-4147
▁पाकिस्तानी	-4148
▁रेखा	-4149
▁ऑटो	-4150
▁मुद्दों	-4151
▁रायपुर	-4152
▁छु	-4153
▁अनिवार	-4154
▁मधु	-4155
▁चेतावनी	-4156
▁वैक्सीन	-4157
▁ग्रे	-4158
दराबाद	-4159
आइ	-4160
▁बढ़े	-4161
जान	-4162
▁ओल	-4163
जब	-4164
▁तृ	-4165
▁स्पेश	-4166
▁गूगल	-4167
▁सैक	-4168
ाइन	-4169
▁प्रतिमा	-4170
▁लगाते	-4171
दाताओं	-4172
वों	-4173
▁हंग	-4174
▁अधिकांश	-4175
▁टिप्पणी	-4176
नन	-4177
िब	-4178
म्मत	-4179
▁यानि	-4180
▁निर्वाचन	-4181
▁सोना	-4182
▁हद	-4183
धारण	-4184
▁कानपुर	-4185
ोध्या	-4186
▁मंडी	-4187
▁संगठनों	-4188
▁श्रीलंका	-4189
▁गहरा	-4190
▁टेक्	-4191
ैंक	-4192
राय	-4193
▁संचालित	-4194
▁सम्बन्ध	-4195
▁वेस्ट	-4196
▁प्रावधान	-4197
▁यात्री	-4198
▁बढ़ावा	-4199
▁लिमिटेड	-4200
▁प्राचीन	-4201
▁ऐलान	-4202
राग	-4203
▁अक्षय	-4204
▁आजादी	-4205
▁स्पी	-4206
▁ढंग	-4207
▁दैनिक	-4208
▁वैश्विक	-4209
▁बोली	-4210
▁रिल	-4211
केशन	-4212
▁महज	-4213
▁आंखों	-4214
न्त	-4215
▁गिरफ्तारी	-4216
▁मृतक	-4217
▁मचा	-4218
ल्ला	-4219
▁संतोष	-4220
▁पथ	-4221
ूंगा	-4222
मंद	-4223
▁टॉप	-4224
▁सकत	-4225
क्षी	-4226
▁इलाहाबाद	-4227
▁निकाला	-4228
▁जनपद	-4229
षेक	-4230
▁मेर	-4231
▁विद्युत	-4232
▁वैज्ञानिक	-4233
लोनी	-4234
▁बताई	-4235
▁विज्ञापन	-4236
ंख्य	-4237
▁सर्वश	-4238
।’’	-4239
▁हैदराबाद	-4240
▁जॉ	-4241
पूर	-4242
यां	-4243
▁काली	-4244
▁दोषी	-4245
▁आत्मा	-4246
श्चा	-4247
.'	-4248
कृष्ण	-4249
▁कहती	-4250
▁विरु	-4251
▁m	-4252
▁प्रगति	-4253
▁हनुमान	-4254
▁दर्शकों	-4255
▁परा	-4256
▁गोरख	-4257
▁निकले	-4258
ल्पना	-4259
▁आदर्श	-4260
▁बांग्लादेश	-4261
▁शाखा	-4262
▁जेट	-4263
भारत	-4264
▁घटनाओं	-4265
▁इश	-4266
कर्मियों	-4267
ुरी	-4268
▁खतर	-4269
▁वकील	-4270
▁बॉक्स	-4271
▁विधाय	-4272
साई	-4273
▁टक्कर	-4274
▁अधिनियम	-4275
▁अयोध्या	-4276
प्ले	-4277
दर्शन	-4278
▁आलोचना	-4279
न्नई	-4280
▁परिवहन	-4281
▁पत्थर	-4282
▁बदले	-4283
▁दाखिल	-4284
फिया	-4285
▁रूपये	-4286
▁परंतु	-4287
▁निम्	-4288
रेज	-4289
▁सफर	-4290
▁होंगी	-4291
ांकन	-4292
▁निप	-4293
▁स्वरूप	-4294
जपे	-4295
भूमि	-4296
▁आजकल	-4297
▁प्रभु	-4298
▁धोनी	-4299
▁अपर	-4300
मतों	-4301
▁रणनीति	-4302
▁संकल्प	-4303
▁प्रतिभा	-4304
▁जगहों	-4305
▁स्कोर	-4306
▁नियुक्ति	-4307
▁न्यायाधीश	-4308
▁उठाने	-4309
▁ब्राह	-4310
एसएस	-4311
▁बराबर	-4312
▁हस्त	-4313
▁लड़के	-4314
▁उर्फ	-4315
डेट	-4316
▁हक	-4317
▁नरेन्द्र	-4318
▁श्रृ	-4319
▁द्वि	-4320
▁सिलस	-4321
हीन	-4322
▁उदय	-4323
▁जागरण	-4324
▁रुक	-4325
▁निर्माता	-4326
▁लापर	-4327
▁ऋण	-4328
▁सरल	-4329
▁रावत	-4330
▁भरी	-4331
▁खेत	-4332
▁सेहत	-4333
▁शिल	-4334
▁भाषण	-4335
▁हटाने	-4336
दीय	-4337
▁रवाना	-4338
्यवाद	-4339
▁टो	-4340
▁खि	-4341
▁डिप	-4342
्राष्ट्रीय	-4343
▁सागर	-4344
ढ़ा	-4345
▁हिरा	-4346
▁डेस्क	-4347
सेस	-4348
▁अफ्रीका	-4349
▁आयुक्त	-4350
▁सिविल	-4351
▁खींच	-4352
▁लिखी	-4353
▁खेले	-4354
▁त्या	-4355
▁इसीलिए	-4356
▁लम्	-4357
▁बला	-4358
▁निकलने	-4359
आप	-4360
▁क्लास	-4361
▁ख़ु	-4362
▁पश	-4363
▁कर्मियों	-4364
▁हृ	-4365
▁अल्प	-4366
▁कौशल	-4367
▁सूर	-4368
▁इंडस्ट्री	-4369
▁शौच	-4370
▁आत्महत्या	-4371
▁नागरिकों	-4372
डीए	-4373
▁उद्घाटन	-4374
▁प्रस	-4375
▁बचपन	-4376
क्षर	-4377
▁कीमतों	-4378
्यूब	-4379
स्करण	-4380
ौली	-4381
▁वनडे	-4382
▁जोशी	-4383
▁निर्भर	-4384
▁शपथ	-4385
▁बेटा	-4386
▁मुज	-4387
▁हिरासत	-4388
स्वी	-4389
▁व्यक्तिगत	-4390
▁जुड़ा	-4391
▁परिवारों	-4392
▁चीजों	-4393
▁सेंट	-4394
▁टूर्	-4395
प्शन	-4396
▁पृष्ठ	-4397
▁प्रखंड	-4398
याल	-4399
▁अर्जुन	-4400
▁नेटवर्क	-4401
िष्ट	-4402
▁गलती	-4403
▁खार	-4404
वट	-4405
▁चेन्नई	-4406
▁ओम	-4407
▁सकारात्मक	-4408
▁मंज	-4409
▁आर्ट	-4410
▁लाइफ	-4411
▁सचिन	-4412
▁बम	-4413
▁समर्	-4414
▁देखी	-4415
स्फ	-4416
▁वां	-4417
▁विरुद्ध	-4418
ंखला	-4419
▁शांत	-4420
▁खर	-4421
▁जाल	-4422
▁सश	-4423
▁चतु	-4424
▁व्यापारी	-4425
▁अरुण	-4426
▁फंड	-4427
▁बनाये	-4428
▁धूम	-4429
▁जस्ट	-4430
▁मनोर	-4431
▁जस	-4432
▁बुल	-4433
▁जवानों	-4434
ब्लिक	-4435
ानिस्तान	-4436
जिये	-4437
▁गतिविधियों	-4438
नामेंट	-4439
▁अनिवार्य	-4440
्रेष्ठ	-4441
▁कं	-4442
स्कृतिक	-4443
▁सिन्हा	-4444
भाष	-4445
▁नील	-4446
रन	-4447
▁बचने	-4448
▁चिकित्सक	-4449
▁एक्	-4450
▁पर्यटन	-4451
वक	-4452
▁टेली	-4453
ुरा	-4454
▁पेज	-4455
▁पवित्र	-4456
वितीय	-4457
▁श्रद्धाल	-4458
▁जर्म	-4459
▁ब्रिटेन	-4460
▁स्टेड	-4461
▁चेयर	-4462
▁बीमा	-4463
क्ताओं	-4464
▁उल्ल	-4465
▁भौ	-4466
▁एटी	-4467
▁चैंप	-4468
▁पदाधिकारी	-4469
और	-4470
ुति	-4471
▁किन्तु	-4472
▁टूर्नामेंट	-4473
व्यू	-4474
कर्मी	-4475
▁लहर	-4476
▁मुकाबला	-4477
▁स्ट्र	-4478
▁भरे	-4479
▁जरिये	-4480
▁बांट	-4481
▁राजस्व	-4482
▁चार्ज	-4483
▁बग	-4484
▁प्रार्थ	-4485
िकाओं	-4486
▁जानी	-4487
▁स्टेडियम	-4488
श्त	-4489
बिनेट	-4490
▁विवरण	-4491
▁रद्द	-4492
▁मुद्दा	-4493
▁ट्रेड	-4494
▁नींद	-4495
▁दीवार	-4496
▁बच्चन	-4497
गरानी	-4498
▁सकी	-4499
▁सर्वा	-4500
▁महीनों	-4501
वाया	-4502
▁संपाद	-4503
▁डिस्	-4504
▁बहस	-4505
▁सिंध	-4506
▁निकालने	-4507
इंट	-4508
▁मैन	-4509
▁सृ	-4510
▁लोकतंत्र	-4511
▁सिया	-4512
▁प्राइवेट	-4513
▁अकेले	-4514
▁मेट	-4515
वरों	-4516
▁अतिथि	-4517
▁अभ्यर्थ	-4518
धिकारियों	-4519
धारा	-4520
▁अमिता	-4521
▁तिल	-4522
▁उत्पादों	-4523
▁कच्च	-4524
▁आधा	-4525
▁चीज़	-4526
▁विधायकों	-4527
▁पात्र	-4528
ंत्रित	-4529
▁कानूनी	-4530
▁सुझाव	-4531
▁बनाते	-4532
▁लक्षण	-4533
ेंगी	-4534
▁लिखे	-4535
▁पेंशन	-4536
▁सीसी	-4537
ब्ल्यू	-4538
ांतर	-4539
कश्मीर	-4540
▁गोल्ड	-4541
यह	-4542
▁निगरानी	-4543
▁महासचिव	-4544
en	-4545
▁मछ	-4546
▁रखता	-4547
▁जीता	-4548
▁डांस	-4549
▁समझने	-4550
श्री	-4551
▁षण	-4552
▁इरा	-4553
▁चाहिये	-4554
परेशन	-4555
कूल	-4556
जपेयी	-4557
▁औसत	-4558
▁पढ़ा	-4559
▁कठिन	-4560
▁दिलच	-4561
षक	-4562
▁तीसरी	-4563
▁विश्ले	-4564
▁जुड़	-4565
सास	-4566
ृत्ति	-4567
▁वारदा	-4568
▁सुनकर	-4569
▁ब्लैक	-4570
▁दूसरों	-4571
वाड़ा	-4572
▁जिनकी	-4573
▁दावे	-4574
▁ईरान	-4575
▁नेहर	-4576
▁शंकर	-4577
▁बसपा	-4578
▁हस्ता	-4579
▁डॉक	-4580
▁अवि	-4581
▁प्रेरित	-4582
▁लन	-4583
▁प्रौ	-4584
▁सख्त	-4585
▁इंच	-4586
▁नौकर	-4587
▁यन	-4588
▁सर्विस	-4589
▁व्हा	-4590
▁तट	-4591
▁निम्न	-4592
मानत	-4593
▁इंजन	-4594
न्यास	-4595
▁वस्तु	-4596
▁विजे	-4597
▁शेष	-4598
▁मोर्चा	-4599
ंदे	-4600
▁सॉफ्ट	-4601
▁गुना	-4602
▁बनकर	-4603
es	-4604
▁एसोसिएशन	-4605
▁सीटें	-4606
▁वाक	-4607
ेप	-4608
▁यश	-4609
▁सुनने	-4610
▁इक	-4611
ंघन	-4612
सिन	-4613
▁टॉ	-4614
▁सहयोगी	-4615
स्कर	-4616
▁देखे	-4617
▁विट	-4618
▁क्षेत्रीय	-4619
▁लुक	-4620
▁नारे	-4621
णसी	-4622
▁क्यू	-4623
▁रॉय	-4624
ोतरी	-4625
▁प्रोग्राम	-4626
▁बैठा	-4627
▁बट	-4628
▁यौन	-4629
▁सीमित	-4630
▁गैंग	-4631
▁अज्ञ	-4632
▁स्पेशल	-4633
▁मजा	-4634
▁हिंदु	-4635
▁असल	-4636
▁मारने	-4637
▁नीर	-4638
▁ताल	-4639
▁आंध	-4640
▁गोद	-4641
▁संशोधन	-4642
▁सोचा	-4643
▁कब्जा	-4644
▁लल	-4645
▁निकट	-4646
िटल	-4647
▁कैबिनेट	-4648
▁लेन	-4649
▁गले	-4650
▁कालेज	-4651
▁पश्चिमी	-4652
▁जोड़ी	-4653
यत	-4654
▁दौरा	-4655
▁समस्त	-4656
▁तमिलना	-4657
▁सर्वश्रेष्ठ	-4658
धीरे	-4659
▁आएगा	-4660
रोध	-4661
▁नोटबंदी	-4662
▁पुष्	-4663
ब्दी	-4664
▁अवश्य	-4665
▁युग	-4666
▁कहता	-4667
▁मांगी	-4668
▁खारिज	-4669
▁वारा	-4670
▁सांस्कृतिक	-4671
लपुर	-4672
▁स्वर्ण	-4673
▁कपिल	-4674
▁सुनाई	-4675
▁दायर	-4676
▁न्यूनतम	-4677
▁लापरवाही	-4678
▁बुलाया	-4679
▁पड	-4680
▁अगली	-4681
फो	-4682
▁अमिताभ	-4683
▁अस्थ	-4684
▁खाता	-4685
▁सदर	-4686
काने	-4687
▁करवाने	-4688
जुर्ग	-4689
▁संदर्भ	-4690
▁रोजाना	-4691
वंत	-4692
▁शर्म	-4693
▁सेवाओं	-4694
पूर्वक	-4695
▁एंड्र	-4696
▁रखकर	-4697
▁जिक्र	-4698
पल	-4699
▁वास्तविक	-4700
▁होली	-4701
▁डेढ़	-4702
शाह	-4703
▁साढ़े	-4704
चय	-4705
खार	-4706
▁समक्ष	-4707
▁जिसमे	-4708
दूस	-4709
ल्थ	-4710
▁भारती	-4711
▁सहमति	-4712
फ्तार	-4713
लिक	-4714
▁फैंस	-4715
▁टुक	-4716
मार्टम	-4717
दायिक	-4718
▁धरती	-4719
▁भय	-4720
▁किमी	-4721
ूली	-4722
▁हृदय	-4723
िफिक	-4724
वाना	-4725
▁कराए	-4726
▁उल्लंघन	-4727
धारी	-4728
ॉजी	-4729
▁विद्या	-4730
पै	-4731
▁चंडी	-4732
वास्तव	-4733
▁विनो	-4734
▁यूनिट	-4735
▁पूर्वी	-4736
▁गौरव	-4737
▁राज्यसभा	-4738
▁जहा	-4739
▁शुद्ध	-4740
▁वाराणसी	-4741
▁जिनका	-4742
▁शुरूआ	-4743
▁प्रतिदिन	-4744
▁पाता	-4745
▁अद्	-4746
▁प्रमो	-4747
वार्	-4748
▁यो	-4749
टीवी	-4750
▁पेपर	-4751
▁जापान	-4752
▁पाएंगे	-4753
▁नु	-4754
▁सदन	-4755
▁झु	-4756
▁मुक्ति	-4757
▁प्रजा	-4758
कता	-4759
▁आगरा	-4760
▁पोस्टमार्टम	-4761
▁रकम	-4762
▁देगी	-4763
मोहन	-4764
▁लोन	-4765
▁खेला	-4766
▁आकाश	-4767
▁प्रार्थना	-4768
ईओ	-4769
स्ट्र	-4770
लाइ	-4771
▁चौकी	-4772
▁डालकर	-4773
▁ब्राह्मण	-4774
वो	-4775
▁सुरेश	-4776
एडा	-4777
▁हार्	-4778
▁बढ़ोतरी	-4779
▁भरने	-4780
▁धन्यवाद	-4781
ारों	-4782
▁उसक	-4783
▁भट्ट	-4784
▁दिवसीय	-4785
▁तमिलनाडु	-4786
▁उल्लेखनीय	-4787
कीन	-4788
▁वाता	-4789
▁लाइट	-4790
बाई	-4791
विक	-4792
▁बेचने	-4793
क्के	-4794
▁व्यक्तियों	-4795
▁मालूम	-4796
▁जिलाधिकारी	-4797
▁अनुकूल	-4798
▁कुर्	-4799
▁लंदन	-4800
▁हड़ताल	-4801
▁अभ्यास	-4802
▁परिस्थित	-4803
▁केन्द	-4804
वाणी	-4805
▁रांची	-4806
▁कन्या	-4807
▁फिल्में	-4808
ुलर	-4809
▁शहरी	-4810
ांज	-4811
▁पंडित	-4812
▁पूजन	-4813
▁बुजुर्ग	-4814
▁प्रेरणा	-4815
बाजों	-4816
▁विष्णु	-4817
▁लीग	-4818
टीन	-4819
▁शेर	-4820
नेशनल	-4821
▁बुद्धि	-4822
त्न	-4823
▁जस्टिस	-4824
जिटिव	-4825
▁b	-4826
▁स्टाफ	-4827
▁नामांकन	-4828
00	-4829
▁मुकेश	-4830
▁आतंकियों	-4831
▁चीजें	-4832
▁कल्पना	-4833
▁रनों	-4834
▁डॉक्टरों	-4835
संध	-4836
▁जबरद	-4837
▁सौर	-4838
▁अब्द	-4839
लील	-4840
▁परमाण	-4841
▁सबको	-4842
▁प्रभावी	-4843
रुख	-4844
▁व्यापारियों	-4845
त्साह	-4846
▁बलात्कार	-4847
▁मंड	-4848
▁कंट्रोल	-4849
▁हज	-4850
▁लड़ने	-4851
▁नजदी	-4852
▁ब्रांड	-4853
▁वातावरण	-4854
भाग्य	-4855
▁ज्ञापन	-4856
▁बिजनेस	-4857
▁भागी	-4858
▁रूम	-4859
▁अभिषेक	-4860
▁सफेद	-4861
▁आएंगे	-4862
▁भरपूर	-4863
▁f	-4864
▁प्रसन्न	-4865
▁अंतर्राष्ट्रीय	-4866
▁शिवराज	-4867
▁विशिष्ट	-4868
▁हेड	-4869
▁दिनेश	-4870
▁पीड़िता	-4871
जल्ट	-4872
▁बड	-4873
घ्र	-4874
▁नक्सल	-4875
▁खिल	-4876
▁पहुंचाने	-4877
▁गोपाल	-4878
▁अदा	-4879
▁रिजल्ट	-4880
▁शर	-4881
▁बेल	-4882
▁चक्कर	-4883
▁अफगानिस्तान	-4884
▁कुर	-4885
▁इलेक्ट्र	-4886
▁दुर्गा	-4887
▁ब्रह्म	-4888
▁द्वार	-4889
▁गायब	-4890
द्योगिक	-4891
▁विचारों	-4892
कां	-4893
▁ब्याज	-4894
▁यूजर्स	-4895
▁डल	-4896
▁इस्तीफा	-4897
▁सकेगा	-4898
▁th	-4899
▁साज	-4900
▁इंट	-4901
न्ट	-4902
फ्रेंस	-4903
▁गोरखपुर	-4904
▁गार्ड	-4905
यें	-4906
▁धान	-4907
▁अस्त	-4908
▁अधिकतम	-4909
▁शाहरुख	-4910
▁कार्यकाल	-4911
ग्न	-4912
तियां	-4913
▁दिलाने	-4914
▁बल्लेबाजी	-4915
▁प्रकरण	-4916
▁संदि	-4917
िफ	-4918
▁छवि	-4919
▁यत	-4920
्वाल	-4921
▁सार	-4922
▁तंत्र	-4923
▁अपडेट	-4924
▁d	-4925
▁सैकड़ों	-4926
▁अपेक्षा	-4927
▁खोलने	-4928
▁श्रीवास्तव	-4929
▁फेंक	-4930
ड़िया	-4931
▁रिजर्व	-4932
▁विपक्षी	-4933
▁जन्मदिन	-4934
▁कारणों	-4935
▁आइए	-4936
बीसी	-4937
▁कच	-4938
▁अजी	-4939
▁हाइ	-4940
▁डायरेक्टर	-4941
▁ज़ि	-4942
कालीन	-4943
▁तुम्हारे	-4944
्यूरो	-4945
▁रमेश	-4946
लीय	-4947
दुर	-4948
▁चेहरा	-4949
▁दर्जन	-4950
▁चलाया	-4951
▁भंड	-4952
▁चन्द्र	-4953
▁r	-4954
▁परमाणु	-4955
क्की	-4956
▁संदिग्ध	-4957
▁रॉ	-4958
▁कैमरे	-4959
▁पड़ती	-4960
▁प्रोत्साह	-4961
फॉर्म	-4962
▁डाटा	-4963
▁दिखाने	-4964
▁जायेगी	-4965
तल	-4966
▁नोएडा	-4967
▁एसडीएम	-4968
▁सिम	-4969
▁खेलों	-4970
▁ऑपरेशन	-4971
दूसरे	-4972
▁मास्टर	-4973
▁ग्राहक	-4974
▁दुष्कर्म	-4975
▁लड	-4976
▁गेह	-4977
मंडल	-4978
▁हाँ	-4979
▁अधिकतर	-4980
▁इंटरव्यू	-4981
▁कहान	-4982
ंपिक	-4983
▁एयरपोर्ट	-4984
▁सर्वो	-4985
▁पांडेय	-4986
▁कैंप	-4987
▁तिर	-4988
▁जमानत	-4989
ख्	-4990
▁विनोद	-4991
▁इनकार	-4992
यक	-4993
▁पिट	-4994
▁चैंपियन	-4995
▁रिसर्च	-4996
▁जुर्म	-4997
▁खतरनाक	-4998
रानी	-4999
▁अज्ञात	-5000
▁तलाक	-5001
▁गिरा	-5002
▁संस्करण	-5003
▁केन्द्रीय	-5004
▁समुद्र	-5005
▁अन्त	-5006
▁खबरों	-5007
▁त्यो	-5008
▁लेती	-5009
वीय	-5010
▁विटाम	-5011
▁एकता	-5012
▁विज	-5013
▁प्राप्ति	-5014
▁लिखने	-5015
▁संसार	-5016
▁गिल	-5017
कांत	-5018
▁सांप	-5019
ेडकर	-5020
▁मस्जिद	-5021
▁अब्दुल	-5022
ैक्ट	-5023
▁रिया	-5024
▁जीबी	-5025
▁लिखित	-5026
द्योगिकी	-5027
डिया	-5028
ार्ट	-5029
▁चंडीगढ़	-5030
▁पश्चा	-5031
▁कोर	-5032
▁जीव	-5033
▁डिवा	-5034
टिल	-5035
ड्ढ	-5036
ायतों	-5037
▁गौतम	-5038
▁अनुसंध	-5039
▁जनस	-5040
▁त्योहार	-5041
▁सूत्र	-5042
▁उड़ा	-5043
प्रति	-5044
▁सैन्य	-5045
यु	-5046
▁मेल	-5047
▁नष्ट	-5048
स्थल	-5049
▁लह	-5050
▁लगेगा	-5051
चंद	-5052
▁ड्यूटी	-5053
▁मूर्ति	-5054
फ्फर	-5055
्यौ	-5056
क्सीजन	-5057
▁अमृत	-5058
▁आयी	-5059
▁सोनिया	-5060
ोत्सव	-5061
▁सोनी	-5062
▁मुआ	-5063
▁सप्	-5064
▁जानें	-5065
▁वाजपेयी	-5066
▁दीपिका	-5067
▁एंट	-5068
▁नाय	-5069
▁धोखा	-5070
▁फं	-5071
▁इल	-5072
कै	-5073
▁3	-5074
▁घे	-5075
▁मनीष	-5076
▁इकाई	-5077
▁रुख	-5078
▁ख्या	-5079
फ़ी	-5080
▁राजपू	-5081
▁ईमान	-5082
▁पार्ष	-5083
▁रफ्तार	-5084
▁दिवाली	-5085
▁बढ़ता	-5086
▁द्र	-5087
मूल	-5088
▁आईटी	-5089
▁मास्क	-5090
ोम	-5091
सेज	-5092
▁आवं	-5093
▁ठहरा	-5094
▁उतना	-5095
▁आदिवासी	-5096
▁दाल	-5097
▁बदमाशों	-5098
▁कब्जे	-5099
कोट	-5100
आरपी	-5101
▁नेहरू	-5102
▁आर्य	-5103
▁प्रशासनिक	-5104
▁सूरज	-5105
▁बिहारी	-5106
▁अनुसंधान	-5107
▁छेड़	-5108
रीत	-5109
▁आंकड़ों	-5110
▁नमक	-5111
▁असली	-5112
▁पाठ्य	-5113
▁सहारा	-5114
▁कस्	-5115
▁स्टोर	-5116
▁सीधा	-5117
▁कड	-5118
▁मुझसे	-5119
कर्ताओं	-5120
▁शोर	-5121
▁खबरें	-5122
संख्य	-5123
▁छत	-5124
देह	-5125
▁अंदाज	-5126
▁बॉस	-5127
ृत्य	-5128
▁तुम्हें	-5129
▁कायम	-5130
▁सरक	-5131
▁प्रतीक	-5132
▁छुट्टी	-5133
▁बारी	-5134
भाषा	-5135
▁रेप	-5136
▁संस्कृत	-5137
▁इज	-5138
▁मूर्	-5139
▁ससुर	-5140
िना	-5141
▁चौथे	-5142
▁धु	-5143
दून	-5144
▁ब्यूरो	-5145
▁सुविधाओं	-5146
▁स्ना	-5147
खण्ड	-5148
फार	-5149
▁पॉजिटिव	-5150
▁बीमारियों	-5151
▁तारीफ	-5152
▁मेट्रो	-5153
▁कलाकार	-5154
▁लाइस	-5155
▁सबके	-5156
▁हंगामा	-5157
फेसर	-5158
▁फ्रांस	-5159
▁महत्	-5160
▁तत्कालीन	-5161
▁कोड	-5162
▁एक्टर	-5163
द्वार	-5164
▁बिता	-5165
▁भेजे	-5166
▁देहरा	-5167
▁अधिव	-5168
▁राशन	-5169
र्मी	-5170
▁व्याव	-5171
▁कार्यक्रमों	-5172
▁अफसरों	-5173
▁जयंती	-5174
▁किस्	-5175
▁ताजा	-5176
दुनिया	-5177
▁अनुरोध	-5178
▁डालने	-5179
▁अनुसू	-5180
▁खण	-5181
ार्क	-5182
▁सब्जी	-5183
▁गुरू	-5184
▁चुप	-5185
स्फोट	-5186
▁म्यू	-5187
▁घंटों	-5188
▁आईए	-5189
बड़ी	-5190
▁कनेक्शन	-5191
▁उठाए	-5192
▁सिक्	-5193
▁बनर्जी	-5194
▁चिंत	-5195
▁प्राय	-5196
▁यहीं	-5197
▁पिछली	-5198
▁छू	-5199
▁भेजने	-5200
▁जोन	-5201
▁तालाब	-5202
▁चम्म	-5203
वीप	-5204
▁महात्मा	-5205
▁इमरान	-5206
ोई	-5207
▁आफ	-5208
रू	-5209
▁जितनी	-5210
▁h	-5211
▁किंग	-5212
▁युवकों	-5213
▁विस्तृत	-5214
▁चेयरमैन	-5215
ोसी	-5216
ेक्टर	-5217
▁शिवसेना	-5218
▁चम्मच	-5219
▁सिखा	-5220
▁टीकाकरण	-5221
तना	-5222
▁हिस्सों	-5223
ेबल	-5224
▁समृ	-5225
▁सर्वाधिक	-5226
▁तर्क	-5227
▁ऑल	-5228
▁विटामिन	-5229
तालों	-5230
▁पवन	-5231
▁भेद	-5232
▁जानकार	-5233
▁मजदूरों	-5234
त्ते	-5235
▁वल	-5236
▁अंडर	-5237
▁मेक	-5238
▁गोवा	-5239
िसू	-5240
▁इंटरनेशनल	-5241
▁पुरुषों	-5242
▁विपरीत	-5243
▁चीफ	-5244
▁जेटली	-5245
ोद	-5246
▁प्रौद्योगिकी	-5247
▁आतंकवादी	-5248
▁राजकुमार	-5249
▁द्वितीय	-5250
▁मिथ	-5251
पंच	-5252
▁पूंजी	-5253
▁o	-5254
▁प्रोफेसर	-5255
फार्म	-5256
▁विस्फोट	-5257
▁कुश	-5258
▁एग्	-5259
▁निकला	-5260
▁मेरठ	-5261
▁आश्वास	-5262
▁व्यस्त	-5263
बिल	-5264
▁चालू	-5265
▁कोर्स	-5266
▁मुजफ्फर	-5267
▁सैनिकों	-5268
िक्	-5269
▁स्वच्छता	-5270
प्रकाश	-5271
▁निशान	-5272
▁जियो	-5273
▁आग्रह	-5274
▁पड़ने	-5275
▁बनता	-5276
▁विजेता	-5277
▁पत्रिका	-5278
▁आएगी	-5279
▁आरोपों	-5280
▁लत	-5281
▁शिम	-5282
▁अर्थात	-5283
श्चर्य	-5284
▁संपन्न	-5285
▁तीसरा	-5286
▁केंद्रों	-5287
▁पर्स	-5288
▁पहुंचकर	-5289
▁अस्पतालों	-5290
▁शीघ्र	-5291
▁कहे	-5292
▁पुराना	-5293
▁श्रृंखला	-5294
ंचल	-5295
सद	-5296
▁पब्लिक	-5297
▁खतरे	-5298
▁जोख	-5299
▁मद्	-5300
धिकरण	-5301
▁मुसलमानों	-5302
▁दीपा	-5303
बीन	-5304
▁गुस्सा	-5305
▁जाया	-5306
▁देहरादून	-5307
▁वसू	-5308
▁छोड़ने	-5309
▁गड़	-5310
▁हंस	-5311
▁बढ़ी	-5312
▁पकड़ा	-5313
▁निल	-5314
▁स्रो	-5315
▁चक	-5316
▁सहज	-5317
▁दिक्कत	-5318
▁आयुर्	-5319
▁बताए	-5320
▁संसाधन	-5321
आईटी	-5322
▁दुकानों	-5323
▁पहुँ	-5324
▁गह	-5325
▁पाठक	-5326
▁विद्यार्थी	-5327
▁वारदात	-5328
▁बेरोज	-5329
्रेशन	-5330
▁विधेय	-5331
▁संबंधों	-5332
▁आश्चर्य	-5333
▁जड़	-5334
ाइम	-5335
▁धरना	-5336
▁झेल	-5337
▁चलती	-5338
▁औद्योगिक	-5339
वर्ती	-5340
ग्रस्त	-5341
ड्डा	-5342
▁एनसी	-5343
्टा	-5344
▁कंपनियां	-5345
is	-5346
▁ब्रिटिश	-5347
ोड	-5348
एससी	-5349
▁सीता	-5350
▁ढेर	-5351
▁फांसी	-5352
▁योग्यता	-5353
▁चपेट	-5354
ेटर	-5355
▁हैरान	-5356
ंगन	-5357
गेट	-5358
▁जानता	-5359
▁शुरुआती	-5360
▁मेगा	-5361
▁मुहैया	-5362
▁बाहरी	-5363
▁जब्त	-5364
▁पाप	-5365
▁चमक	-5366
▁शौचालय	-5367
it	-5368
▁कॉम	-5369
▁बड़	-5370
▁क्षति	-5371
▁कटौती	-5372
▁बिंद	-5373
मात्र	-5374
▁आश्वासन	-5375
▁मैसे	-5376
▁विंड	-5377
▁आपस	-5378
▁घोटाले	-5379
▁ऑफर	-5380
▁शास्त्री	-5381
▁परिजन	-5382
रक	-5383
▁पेय	-5384
▁पेशे	-5385
▁a	-5386
▁बुक	-5387
▁नल	-5388
▁स्मृति	-5389
र्ख	-5390
▁जोखिम	-5391
▁शुक्ला	-5392
▁अत्या	-5393
▁टेक्न	-5394
▁मायावती	-5395
▁उपस्थिति	-5396
▁चोप	-5397
▁अपमान	-5398
▁विभागों	-5399
ल्ले	-5400
▁क्वार	-5401
▁फर्	-5402
रेली	-5403
▁डूब	-5404
▁जानिए	-5405
▁स्नान	-5406
▁इंस्टा	-5407
▁बाबू	-5408
▁सपने	-5409
ic	-5410
▁चावल	-5411
▁किरण	-5412
▁नित	-5413
▁साजिश	-5414
▁मानी	-5415
▁आपसे	-5416
▁तथ्य	-5417
▁नर्स	-5418
▁सराह	-5419
्तिक	-5420
विंग	-5421
▁वत	-5422
ियस	-5423
▁काउंस	-5424
▁मेले	-5425
▁मद्देन	-5426
▁प्रकट	-5427
▁गाना	-5428
▁शरण	-5429
ौज	-5430
▁महेंद्र	-5431
▁विषयों	-5432
▁आपदा	-5433
▁कमांड	-5434
▁मुलायम	-5435
तरीय	-5436
▁लगाना	-5437
▁सॉफ्टवेयर	-5438
▁पाउ	-5439
कुछ	-5440
▁जज	-5441
रीय	-5442
▁संसदीय	-5443
▁पूछे	-5444
▁निर्देशक	-5445
▁करोड़ों	-5446
▁मुस्क	-5447
▁तुलसी	-5448
▁मारा	-5449
▁सुभाष	-5450
▁n	-5451
आईआर	-5452
ष्म	-5453
▁एकत्र	-5454
▁डु	-5455
▁घाटी	-5456
▁बतौर	-5457
▁गेंदबाज	-5458
▁श्याम	-5459
▁अवस्था	-5460
▁शतक	-5461
▁कहाँ	-5462
पाठी	-5463
वेदी	-5464
ोलॉजी	-5465
्ठा	-5466
▁इसल	-5467
▁आमिर	-5468
▁शुरूआत	-5469
▁संस्थानों	-5470
▁ढूं	-5471
▁अश्	-5472
▁समझौता	-5473
स्वर	-5474
▁आहार	-5475
▁लाइसेंस	-5476
▁सीनियर	-5477
▁संभ	-5478
▁मुर	-5479
▁वर्क	-5480
वेदनशील	-5481
तायात	-5482
रस	-5483
राण	-5484
▁पायल	-5485
▁बोलने	-5486
▁फाइल	-5487
▁स्थिर	-5488
मेट	-5489
▁आजाद	-5490
▁अभाव	-5491
▁आपत्ति	-5492
▁लाइव	-5493
▁इंदिरा	-5494
चर्स	-5495
▁निपटने	-5496
▁उन्होने	-5497
’,	-5498
▁ठेके	-5499
सैन	-5500
▁उद्य	-5501
▁स्तरीय	-5502
▁प्लांट	-5503
▁दिना	-5504
ुल्	-5505
▁सीर	-5506
▁सुश	-5507
तू	-5508
▁स्टो	-5509
▁सिफार	-5510
▁मैसेज	-5511
▁इंजीनियरिंग	-5512
हरण	-5513
ुष	-5514
▁बिल्ड	-5515
▁इमार	-5516
▁बेंगल	-5517
▁फ्ला	-5518
▁यातायात	-5519
▁राजपूत	-5520
▁मनोरंजन	-5521
▁फैक्ट	-5522
▁आचार्य	-5523
लेस	-5524
▁इत्या	-5525
▁आमतौर	-5526
डीपी	-5527
▁सेवाएं	-5528
▁सितम्बर	-5529
▁धमा	-5530
▁जायेंगे	-5531
गें	-5532
▁पच	-5533
▁गेहूं	-5534
▁मेड़ी	-5535
▁कामयाब	-5536
कॉम	-5537
▁गीता	-5538
▁अतः	-5539
▁दृष्ट	-5540
▁मेड़ीसिन	-5541
▁हस्ताक्षर	-5542
ॉड	-5543
▁डॉकटर	-5544
▁रोज़	-5545
▁मेन	-5546
▁गंभीरता	-5547
▁उत्सव	-5548
▁नाथ	-5549
▁सिफारिश	-5550
कामना	-5551
ंगाई	-5552
▁स्टैंड	-5553
सो	-5554
▁समझौते	-5555
▁जोड़ने	-5556
करार	-5557
▁सैनिक	-5558
▁मरा	-5559
ंगों	-5560
▁संचार	-5561
▁नाबाल	-5562
▁निकाय	-5563
▁खिता	-5564
▁तप	-5565
▁बैक	-5566
▁आरोपित	-5567
▁हर्ष	-5568
▁आश्रम	-5569
▁शरी	-5570
▁निर्मित	-5571
ासा	-5572
▁यूरोप	-5573
▁साइकिल	-5574
डि़	-5575
कभी	-5576
▁रय	-5577
िमंडल	-5578
ूनों	-5579
▁जीते	-5580
▁विवेक	-5581
ोग्रा	-5582
▁नवीन	-5583
▁समीप	-5584
▁कैश	-5585
▁टाटा	-5586
▁मरने	-5587
▁विधेयक	-5588
▁खासकर	-5589
▁चोपड़ा	-5590
ार्थियों	-5591
▁उन्हीं	-5592
भुत	-5593
▁मतदाता	-5594
▁मानें	-5595
▁लोह	-5596
▁अधिसू	-5597
धीन	-5598
▁निरंतर	-5599
▁बचे	-5600
▁उन्न	-5601
▁एसी	-5602
न्त्र	-5603
▁समर्पित	-5604
इज	-5605
▁पाठ्यक्रम	-5606
▁राजकीय	-5607
▁मुखिया	-5608
▁बैग	-5609
अपने	-5610
डू	-5611
▁दिग्गज	-5612
▁शत	-5613
▁वार्ष	-5614
▁कौर	-5615
▁शिमला	-5616
▁इत्यादि	-5617
▁भक्ति	-5618
▁शैली	-5619
शियों	-5620
▁वादा	-5621
▁सबस	-5622
▁क्ली	-5623
▁बौद्ध	-5624
▁ऑफ़	-5625
▁हेम	-5626
घाट	-5627
▁ब्लड	-5628
▁दिव्या	-5629
बरा	-5630
▁देशभर	-5631
स्पति	-5632
▁महेश	-5633
▁अनुश	-5634
▁साउ	-5635
देवी	-5636
▁उर्	-5637
क्षेत्र	-5638
▁धूप	-5639
शंकर	-5640
▁एह	-5641
▁साई	-5642
▁पाक	-5643
लन	-5644
फाई	-5645
▁पत्रकारिता	-5646
▁वॉल	-5647
▁प्राधिकरण	-5648
प्रे	-5649
▁निच	-5650
▁प्रेमी	-5651
▁तीर्थ	-5652
अर	-5653
▁साव	-5654
▁आवाज़	-5655
ोगी	-5656
▁टीमों	-5657
▁चित	-5658
▁त्याग	-5659
▁ज्योतिष	-5660
▁दृश्य	-5661
▁गढ़	-5662
▁पोस्टर	-5663
▁नशे	-5664
▁शोषण	-5665
▁आरंभ	-5666
्रल	-5667
▁बैटरी	-5668
▁परिस्थितियों	-5669
▁ग्वाल	-5670
्तर	-5671
▁सर्वोच्च	-5672
▁पुणे	-5673
नम	-5674
▁हिन्दु	-5675
▁माध	-5676
▁जाओ	-5677
▁सुर्ख	-5678
ंत्रिक	-5679
▁ऋषि	-5680
▁भाग्य	-5681
▁त्रिपाठी	-5682
प्पा	-5683
▁भोजपुरी	-5684
ज्ञा	-5685
▁ण	-5686
▁गुम	-5687
▁दां	-5688
▁माध्यमिक	-5689
▁मुठ	-5690
▁परिचय	-5691
▁पार्टियों	-5692
▁फॉर	-5693
▁इंस्टाग्राम	-5694
▁शुभार	-5695
▁मद्देनजर	-5696
▁दिखे	-5697
▁रूट	-5698
▁बरसा	-5699
▁मैनेज	-5700
▁नद	-5701
▁बिलकुल	-5702
▁महाविद्यालय	-5703
ार्थी	-5704
▁विविध	-5705
▁बाधा	-5706
▁बाई	-5707
▁इंस्प	-5708
मीन	-5709
▁मिलेंगे	-5710
एमसी	-5711
▁कोय	-5712
बीएस	-5713
▁श्रीमती	-5714
स्पिटल	-5715
▁मेला	-5716
▁मनाने	-5717
सीन	-5718
्वे	-5719
▁साधारण	-5720
▁जबरदस्त	-5721
▁प्लास्टिक	-5722
▁प्रीम	-5723
▁जूझ	-5724
▁चढ़ा	-5725
▁डिवाइस	-5726
▁उपभोक्ता	-5727
▁-,	-5728
न्दगी	-5729
▁डाक्टर	-5730
▁झग	-5731
ांजलि	-5732
पाई	-5733
▁प्राण	-5734
▁साथियों	-5735
काया	-5736
▁माफी	-5737
▁दत्त	-5738
कीम	-5739
▁कमेंट	-5740
▁डाक	-5741
ष्क	-5742
▁निवास	-5743
▁दुश्म	-5744
▁नाबालिग	-5745
▁बुनिया	-5746
▁अनुसूचित	-5747
▁आमंत्रित	-5748
▁मंत्रियों	-5749
▁19	-5750
▁झटका	-5751
▁चिट	-5752
धाम	-5753
▁राजद	-5754
▁जाएंगी	-5755
▁शुभकामना	-5756
▁यूनियन	-5757
▁अनुप	-5758
▁बर्फ	-5759
▁जिलाध्यक्ष	-5760
▁पारित	-5761
त्तर	-5762
▁आंकड़े	-5763
वनि	-5764
▁जोड़ा	-5765
▁रिकार्ड	-5766
ालों	-5767
▁अल्पसंख्य	-5768
ग़	-5769
▁सत्या	-5770
▁प्रदर्शित	-5771
▁निकाली	-5772
▁भूख	-5773
▁ट्रेनिंग	-5774
▁मिलना	-5775
▁शिखर	-5776
▁दस्तावेज	-5777
▁फीचर	-5778
▁पदाधिकारियों	-5779
ूंकि	-5780
▁पालिका	-5781
पता	-5782
▁एडी	-5783
▁हीरो	-5784
प्री	-5785
▁जह	-5786
िशन	-5787
▁अभिनय	-5788
▁तहरीर	-5789
▁दक	-5790
▁बुद्ध	-5791
▁पीढ़ी	-5792
▁जनजा	-5793
▁सैल	-5794
▁उत्तरी	-5795
वाज	-5796
▁सेल्स	-5797
▁व्याख्या	-5798
▁जुर्माना	-5799
▁मुआव	-5800
▁हार्दिक	-5801
▁सामूह	-5802
बॉल	-5803
चारिक	-5804
▁ओलंपिक	-5805
▁सेमी	-5806
▁दर्शा	-5807
▁विश्लेषण	-5808
▁शिश	-5809
संघ	-5810
▁सवालों	-5811
▁आयुर्वेद	-5812
स्वामी	-5813
वह	-5814
▁प्राथमिकता	-5815
▁आरएसएस	-5816
पीड़	-5817
▁नाटक	-5818
▁आकर्षित	-5819
बली	-5820
▁बनना	-5821
▁जागरूकता	-5822
▁प्रोडक्ट	-5823
▁अवगत	-5824
नाल्ड	-5825
▁रच	-5826
▁रिम	-5827
माही	-5828
ोजक	-5829
▁विद्	-5830
▁कामका	-5831
▁बनाता	-5832
▁क्रिकेटर	-5833
le	-5834
▁वार्षिक	-5835
▁ड्राइवर	-5836
▁उपयोगी	-5837
▁मांस	-5838
▁उड़ान	-5839
ध्याय	-5840
▁नवम्बर	-5841
▁सऊ	-5842
्डी	-5843
सारी	-5844
ख़	-5845
▁आक	-5846
▁ट्रैक	-5847
▁श्रीनगर	-5848
▁सरकारों	-5849
▁हादसा	-5850
▁खाद	-5851
▁.,	-5852
क्या	-5853
ायें	-5854
▁अपराधियों	-5855
विश्वास	-5856
▁रोका	-5857
▁ऑक्सीजन	-5858
णु	-5859
▁कुमारी	-5860
▁पाइ	-5861
▁सप्लाई	-5862
▁हेल्थ	-5863
▁उज्ज	-5864
▁पंक	-5865
▁ठंड	-5866
▁अहमदाबाद	-5867
▁औष	-5868
पं	-5869
▁सच्चाई	-5870
चुनाव	-5871
मार्ग	-5872
▁जर्मनी	-5873
▁सामूहिक	-5874
▁फीसद	-5875
▁धारण	-5876
▁साक्षा	-5877
▁वेद	-5878
▁आंकड़ा	-5879
ायंस	-5880
▁स्वभाव	-5881
▁अस्तित्व	-5882
वालों	-5883
▁चूंकि	-5884
बंद	-5885
भूत	-5886
चरण	-5887
लाश	-5888
केज	-5889
▁नग	-5890
▁जानना	-5891
▁ओड	-5892
र्वाद	-5893
जीलैंड	-5894
▁बढ़त	-5895
▁एकमात्र	-5896
▁संदीप	-5897
▁हुसैन	-5898
▁लीड	-5899
कंप	-5900
▁नॉ	-5901
▁अन्ना	-5902
▁ग्रीन	-5903
रियर	-5904
▁सुविधाएं	-5905
▁संतुल	-5906
▁होश	-5907
▁एक्शन	-5908
▁पड़ोसी	-5909
▁मोड़	-5910
▁कार्यरत	-5911
▁भगत	-5912
▁सेल्	-5913
▁वर्षा	-5914
हाई	-5915
▁मुठभ	-5916
▁रभ	-5917
▁ट्रैफिक	-5918
▁सरदार	-5919
▁हवाले	-5920
▁बहुमत	-5921
▁देखभाल	-5922
▁लाई	-5923
▁मथ	-5924
▁एजेंस	-5925
ट्र	-5926
▁वक़	-5927
▁रोमां	-5928
▁कैसा	-5929
▁एकदम	-5930
▁गरीबों	-5931
▁एटीएम	-5932
▁काबू	-5933
▁जताया	-5934
▁दिखने	-5935
▁साहू	-5936
वर्ड	-5937
▁कमर	-5938
▁खिताब	-5939
▁कवर	-5940
▁देरी	-5941
▁रात्रि	-5942
▁दिलचस्प	-5943
▁राणा	-5944
▁मकसद	-5945
▁गाइड	-5946
दायक	-5947
▁वास	-5948
▁संवेदनशील	-5949
▁दफ्	-5950
ंगना	-5951
ंडीज	-5952
्योर	-5953
▁बालक	-5954
िकोण	-5955
▁ग्वालियर	-5956
प्रीत	-5957
▁महंगाई	-5958
▁बेस्ट	-5959
▁चरित्र	-5960
▁झूठ	-5961
▁थाम	-5962
स्टार	-5963
▁पैमाने	-5964
जिया	-5965
नाश	-5966
▁ग्रा	-5967
▁साउथ	-5968
मानी	-5969
▁निर्यात	-5970
▁पाउडर	-5971
▁प्रदीप	-5972
▁एप्	-5973
▁दीपावली	-5974
▁बॉडी	-5975
▁अपहरण	-5976
▁पोर्टल	-5977
▁भव्य	-5978
▁w	-5979
फाइ	-5980
▁सम्बंध	-5981
▁हज़ार	-5982
▁स्टाइल	-5983
▁लेखन	-5984
ोटे	-5985
▁भड़	-5986
▁क्रेड	-5987
▁न्यूजीलैंड	-5988
▁दिनांक	-5989
▁कार्तिक	-5990
▁कारोबारी	-5991
र्ति	-5992
▁बढ़ाया	-5993
▁बहादुर	-5994
▁बूथ	-5995
▁पहुंचाया	-5996
▁सदा	-5997
्वान	-5998
▁अमे	-5999
▁रिकॉर्डिंग	-6000
▁कुंड	-6001
विटी	-6002
▁मासूम	-6003
क्चर	-6004
▁लिंग	-6005
▁सिख	-6006
लक	-6007
र्धा	-6008
पया	-6009
▁पार्षद	-6010
ेयर	-6011
ंचित	-6012
▁निलंब	-6013
▁ट्रेनों	-6014
▁दफ्तर	-6015
▁ब्रेक	-6016
▁कॉलोनी	-6017
सर्	-6018
▁गर्व	-6019
▁रोशनी	-6020
▁बीसीसी	-6021
▁सब्स	-6022
▁कृपा	-6023
▁अधिसूचना	-6024
▁नवरा	-6025
▁घाय	-6026
▁पाना	-6027
क्षेप	-6028
▁फायदेमंद	-6029
▁उपभोक्ताओं	-6030
▁बोलते	-6031
▁आंध्र	-6032
▁हुईं	-6033
▁प्रोफ	-6034
▁गिरने	-6035
जग	-6036
करे	-6037
▁इर	-6038
▁अद्भुत	-6039
▁अमरीका	-6040
▁कोट	-6041
▁मैनेजर	-6042
▁उच्चतम	-6043
मूर्ति	-6044
▁अत्यंत	-6045
▁बटन	-6046
▁प्रबंधक	-6047
▁गठित	-6048
िश्	-6049
▁शीत	-6050
नेशन	-6051
▁सौंपा	-6052
▁एफआईआर	-6053
▁आरा	-6054
▁पक्षों	-6055
्रीट	-6056
▁पुनर्	-6057
▁ऋष	-6058
छाड़	-6059
▁गेंदबाजी	-6060
▁चिल	-6061
टकों	-6062
▁शत्र	-6063
▁असफल	-6064
▁आस्था	-6065
ण्य	-6066
▁आदत	-6067
ैम	-6068
बन	-6069
▁हमे	-6070
▁फ़ोन	-6071
ड्डी	-6072
दाई	-6073
▁मंग	-6074
▁फंस	-6075
▁रखती	-6076
▁साझे	-6077
▁बनती	-6078
',	-6079
▁अल्लाह	-6080
▁भव	-6081
▁श्रद्धा	-6082
▁दोहरा	-6083
▁संपादक	-6084
▁देखिए	-6085
▁जुल	-6086
▁तेंद	-6087
▁बाप	-6088
▁इन्हीं	-6089
ोली	-6090
्ति	-6091
कश	-6092
▁पकड़े	-6093
नैतिक	-6094
▁स्टूडेंट्स	-6095
▁पलट	-6096
▁जमी	-6097
▁हैंड	-6098
वाहा	-6099
▁राजेंद्र	-6100
िव्य	-6101
▁पंकज	-6102
▁कलाकारों	-6103
▁सऊदी	-6104
▁अनुरूप	-6105
▁गोयल	-6106
▁कहकर	-6107
▁कलर	-6108
▁वक़्त	-6109
▁राजन	-6110
▁नजदीक	-6111
क्क	-6112
▁आधे	-6113
▁मुना	-6114
▁यूजर	-6115
ंधे	-6116
▁जितने	-6117
▁समझते	-6118
▁फस	-6119
▁नियंत्रित	-6120
▁इव	-6121
▁क्रेडिट	-6122
▁in	-6123
▁माइक्रो	-6124
ऩे	-6125
स्वरूप	-6126
प्पी	-6127
कलन	-6128
वर्धन	-6129
▁आईएस	-6130
▁गुप्त	-6131
▁उपय	-6132
▁ग्लो	-6133
▁चांदी	-6134
नीत	-6135
▁चन	-6136
▁उभर	-6137
ूण	-6138
▁सिंचाई	-6139
▁मुखर्जी	-6140
स्टल	-6141
▁स्वाद	-6142
▁चांद	-6143
▁अगु	-6144
▁रूपए	-6145
▁ढूंढ	-6146
▁साफ़	-6147
▁ऑप	-6148
▁विशेषज्ञों	-6149
▁छात्राओं	-6150
▁इंस्पेक्टर	-6151
▁आशीर्वाद	-6152
▁अधीन	-6153
▁हाला	-6154
▁भेंट	-6155
▁करेंगी	-6156
▁एकल	-6157
▁धवन	-6158
▁आयात	-6159
▁मुठभेड़	-6160
▁एडम	-6161
▁अधि	-6162
▁आजम	-6163
▁कराना	-6164
जत	-6165
▁जेएन	-6166
न्नी	-6167
▁व्यक्तित्व	-6168
▁बादल	-6169
▁जिंदा	-6170
मै	-6171
▁जॉन	-6172
▁खनन	-6173
ोंग	-6174
▁बैठकर	-6175
▁नस	-6176
▁डेब	-6177
▁ध्व	-6178
▁बाह	-6179
▁संस्थाओं	-6180
ंकन	-6181
िडी	-6182
ंगर	-6183
ष्णा	-6184
▁घायलों	-6185
▁तत्वों	-6186
ग्रा	-6187
▁प्रयासों	-6188
▁पार्टनर	-6189
▁शब	-6190
▁संचालक	-6191
▁ज़रूरत	-6192
▁सुन्दर	-6193
स्को	-6194
▁मज़	-6195
▁अन्दर	-6196
▁अंतरिक्ष	-6197
▁रौ	-6198
▁यमु	-6199
▁गेंदों	-6200
तीत	-6201
▁निकली	-6202
स्पी	-6203
डब्ल्यू	-6204
▁राजनाथ	-6205
▁रिश्ता	-6206
▁बाब	-6207
▁सब्ज	-6208
▁पौधे	-6209
▁जाग	-6210
जीवन	-6211
▁आपसी	-6212
▁उपन्यास	-6213
स्वती	-6214
▁प्रका	-6215
ीकरण	-6216
▁ट्रैक्टर	-6217
ॉर्ट	-6218
▁समर्थकों	-6219
▁पापा	-6220
ज्य	-6221
▁बंट	-6222
▁हिट	-6223
▁गर्भ	-6224
चंद्र	-6225
▁मानने	-6226
▁अंधे	-6227
▁चलेगा	-6228
ग्रहण	-6229
▁ख्याल	-6230
स्तु	-6231
▁फायरिंग	-6232
िएंट	-6233
▁जरुरत	-6234
▁श्रद्धालुओं	-6235
वार्ड	-6236
▁सेन	-6237
ीट	-6238
ed	-6239
ष्का	-6240
▁पाये	-6241
▁रावण	-6242
▁फैशन	-6243
▁रहकर	-6244
पीय	-6245
▁उद्ध	-6246
▁जूनियर	-6247
▁राजनैतिक	-6248
▁पाती	-6249
▁सम्प	-6250
▁अश्व	-6251
▁काटने	-6252
शिंग	-6253
▁कैद	-6254
▁ब्लाक	-6255
्यूल	-6256
▁फु	-6257
▁किंतु	-6258
▁चर्	-6259
रीबी	-6260
▁ताज	-6261
▁ढां	-6262
▁सीसीटीवी	-6263
कृष्ट	-6264
▁अभिभाव	-6265
▁गहरी	-6266
▁वृक्ष	-6267
▁जौ	-6268
▁शुक्ल	-6269
▁बसों	-6270
▁स्वीकृति	-6271
▁हॉस्पिटल	-6272
▁शता	-6273
▁जद	-6274
▁अपराधी	-6275
▁भक्तों	-6276
शान	-6277
ंसक	-6278
▁नकारात्मक	-6279
▁पायलट	-6280
▁डाली	-6281
राज्य	-6282
▁बाँ	-6283
▁मध्यम	-6284
▁मिठ	-6285
वर्ष	-6286
▁सैम	-6287
▁डाले	-6288
▁काग	-6289
▁महोत्सव	-6290
▁पंप	-6291
▁रथ	-6292
▁दुबे	-6293
धानिक	-6294
▁20	-6295
▁काशी	-6296
▁वेर	-6297
▁आक्रो	-6298
▁स्वि	-6299
▁इंतजाम	-6300
▁वैज्ञानिकों	-6301
▁नृत्य	-6302
▁मिर्च	-6303
क्ष्य	-6304
चार्ज	-6305
▁निर्द	-6306
टके	-6307
▁मांगा	-6308
हिता	-6309
▁बत	-6310
याम	-6311
▁गवर्	-6312
▁बलों	-6313
▁दोस्ती	-6314
र्जर	-6315
मरी	-6316
▁मांगों	-6317
▁वर्णन	-6318
▁नीतियों	-6319
याग	-6320
ायन	-6321
▁देवता	-6322
लिख	-6323
ेमारी	-6324
▁अजीब	-6325
▁मीटिंग	-6326
िएट	-6327
काय	-6328
▁j	-6329
मंत्र	-6330
▁ऊंच	-6331
▁तिमाही	-6332
ासपुर	-6333
▁पेर	-6334
▁आसमान	-6335
▁उपचुनाव	-6336
▁कहला	-6337
▁मनोहर	-6338
।.	-6339
▁भौतिक	-6340
▁फर्क	-6341
▁सीओ	-6342
▁नहर	-6343
▁आह्वान	-6344
▁अमीर	-6345
्ती	-6346
▁अधिकारों	-6347
लाइट	-6348
ंबा	-6349
▁सूरत	-6350
▁सव	-6351
▁युक्त	-6352
▁रघु	-6353
▁छापेमारी	-6354
▁स्रोत	-6355
वेल	-6356
▁ट्रस्ट	-6357
झी	-6358
▁सुशील	-6359
▁उज	-6360
▁बरकरार	-6361
▁मनमोहन	-6362
▁ठोस	-6363
▁बुर	-6364
▁कृपया	-6365
भूषण	-6366
पालन	-6367
▁एसएसपी	-6368
▁पहना	-6369
▁भीम	-6370
धित	-6371
िवारिक	-6372
दृ	-6373
▁बीत	-6374
▁आलोक	-6375
▁वाइ	-6376
▁सपोर्ट	-6377
▁सतर्क	-6378
▁शिर	-6379
▁संजीव	-6380
▁आशीष	-6381
▁चट	-6382
▁अंश	-6383
▁दुब	-6384
▁रिलायंस	-6385
▁मिलियन	-6386
▁स्पीड	-6387
एगा	-6388
▁पैरों	-6389
▁g	-6390
बाग	-6391
▁सिद्धार्थ	-6392
▁चुने	-6393
▁कर्मी	-6394
▁बुखार	-6395
▁पंजीकरण	-6396
ियंस	-6397
▁आकर्षक	-6398
्नि	-6399
▁एके	-6400
▁सरस्वती	-6401
▁नाक	-6402
▁समस्याएं	-6403
▁सर्च	-6404
▁वसूली	-6405
▁हरे	-6406
▁श्रीराम	-6407
▁स्थायी	-6408
▁क्रांति	-6409
▁बीसीसीआई	-6410
▁मारकर	-6411
▁इकट	-6412
णिज	-6413
▁गुट	-6414
▁निर्देशन	-6415
▁दलितों	-6416
▁शुभारंभ	-6417
▁श्रद्धांजलि	-6418
ूद	-6419
▁सीईओ	-6420
▁पिटाई	-6421
▁अत्यधिक	-6422
▁गिरी	-6423
▁एंट्री	-6424
▁हिम्मत	-6425
▁टाइम्स	-6426
▁केश	-6427
▁दिली	-6428
ैश	-6429
▁वस्तुओं	-6430
साइड	-6431
▁सिद्धांत	-6432
▁प्रस्तावित	-6433
तिर	-6434
ोदय	-6435
▁आईं	-6436
णिज्य	-6437
▁पाय	-6438
▁बुनियादी	-6439
▁भूप	-6440
▁ट्रेलर	-6441
जि	-6442
▁मंदिरों	-6443
▁पारिवारिक	-6444
▁जोध	-6445
▁खाम	-6446
▁बृह	-6447
▁रोशन	-6448
बस	-6449
▁जरुरी	-6450
▁स्कीम	-6451
िणी	-6452
▁तुम्हारी	-6453
▁रेडियो	-6454
▁डू	-6455
ion	-6456
▁एसिड	-6457
ईडी	-6458
आउट	-6459
▁दायरे	-6460
▁छठ	-6461
▁रणवीर	-6462
▁कैलाश	-6463
▁दस्त	-6464
▁नाराजगी	-6465
▁नतीजे	-6466
▁पेयजल	-6467
▁कामकाज	-6468
जाने	-6469
▁एशियाई	-6470
▁अकबर	-6471
▁हरकत	-6472
वश	-6473
▁जरा	-6474
क्ल	-6475
वाड़	-6476
▁आलम	-6477
▁फोर	-6478
▁एरिया	-6479
▁पैदल	-6480
▁अभिव्य	-6481
▁पटा	-6482
▁आपात	-6483
▁सत्	-6484
मय	-6485
शास्त्र	-6486
▁कड़ा	-6487
▁लगाएं	-6488
▁ख़बर	-6489
▁जाप	-6490
▁सिलसिला	-6491
▁सबूत	-6492
ज़न	-6493
▁ड्रेस	-6494
▁फीट	-6495
भूति	-6496
▁डिली	-6497
▁रजिस्ट्रेशन	-6498
▁छिपा	-6499
नामा	-6500
▁गर्भव	-6501
▁संहिता	-6502
पीसी	-6503
▁भूकंप	-6504
▁वेस्टइ	-6505
▁स्टील	-6506
डो	-6507
▁कक्ष	-6508
▁चिन्ह	-6509
▁फुल	-6510
▁लेवल	-6511
▁बिलासपुर	-6512
▁छाया	-6513
▁करवाई	-6514
▁दर्जा	-6515
▁दृष्टिकोण	-6516
▁जाएँ	-6517
▁कत	-6518
▁मतदाताओं	-6519
▁खुली	-6520
▁प्रत्यक्ष	-6521
वार्थ	-6522
यो	-6523
.’’	-6524
वानों	-6525
▁जनसं	-6526
▁रश	-6527
▁ख़ास	-6528
▁इच्छुक	-6529
▁दरवाजे	-6530
▁गम	-6531
▁शर्त	-6532
▁सेंट्रल	-6533
▁समर्थक	-6534
▁साधन	-6535
▁लाश	-6536
व्र	-6537
▁अतिक	-6538
▁आतंकवादियों	-6539
ड़की	-6540
▁भास्कर	-6541
▁आब	-6542
▁बाजारों	-6543
▁एससी	-6544
▁फ्रंट	-6545
▁फूड	-6546
मह	-6547
▁अभ्यर्थियों	-6548
ष्कार	-6549
ोगे	-6550
▁दुरु	-6551
▁जोधपुर	-6552
▁रहस्य	-6553
▁आँखों	-6554
▁भेजी	-6555
▁एकज	-6556
▁धातु	-6557
▁पौध	-6558
▁तालि	-6559
▁घटनाएं	-6560
▁लांच	-6561
्यांकन	-6562
▁पैकेज	-6563
▁पश्चात	-6564
▁श्रेष्ठ	-6565
▁यूं	-6566
▁संरचना	-6567
टिया	-6568
छात्रा	-6569
▁छान	-6570
▁of	-6571
ैस	-6572
म्परा	-6573
रित	-6574
▁मेघ	-6575
▁एश	-6576
पिंग	-6577
▁खेलते	-6578
पालिका	-6579
▁बस्ती	-6580
▁लघु	-6581
▁शरद	-6582
▁फेल	-6583
▁विचारधारा	-6584
▁इलेक्ट्रॉन	-6585
गणना	-6586
पीड़न	-6587
▁कमाल	-6588
▁ओडिशा	-6589
लोक	-6590
दमी	-6591
▁उपरा	-6592
▁4	-6593
▁ऑडियो	-6594
▁लंबा	-6595
▁आयकर	-6596
▁मथुरा	-6597
▁हौ	-6598
ह्न	-6599
▁तस्वीरों	-6600
▁जीने	-6601
▁प्रवाह	-6602
▁खेली	-6603
▁प्रांत	-6604
टू	-6605
▁संदेह	-6606
▁हिम	-6607
▁उपज	-6608
▁रोटी	-6609
▁खेतों	-6610
▁कच्चे	-6611
▁प्रकाशन	-6612
▁मौजूदगी	-6613
▁गर्भवती	-6614
▁साक्षात्कार	-6615
▁आलू	-6616
थन	-6617
▁नाकाम	-6618
ार्टमेंट	-6619
▁गरीबी	-6620
▁हसन	-6621
पाही	-6622
▁समन्व	-6623
▁जबलपुर	-6624
▁भिन्न	-6625
▁टल	-6626
▁अरे	-6627
▁वाम	-6628
▁बारह	-6629
ड्डे	-6630
▁दिलीप	-6631
▁ढाई	-6632
▁शोक	-6633
▁उपयुक्त	-6634
▁परियोजनाओं	-6635
▁रवी	-6636
थल	-6637
▁उपाध्याय	-6638
▁कामना	-6639
▁कुलदीप	-6640
▁बलि	-6641
आरसी	-6642
्रु	-6643
्ठी	-6644
▁ऊंचाई	-6645
न्ड	-6646
▁अनुष्का	-6647
▁फाउंड	-6648
▁सावधानी	-6649
ख्त	-6650
गित	-6651
▁घूमने	-6652
ॉयड	-6653
▁बाइ	-6654
▁साधना	-6655
▁लड़का	-6656
▁महल	-6657
▁जिसको	-6658
▁पहाड़ी	-6659
▁इंकार	-6660
▁दंड	-6661
▁सर्वेक्षण	-6662
लोग	-6663
निस	-6664
फ्रेंड	-6665
▁मित्रों	-6666
ख्यात	-6667
▁मजबूती	-6668
▁गार	-6669
प्पल	-6670
खाने	-6671
▁बिगड़	-6672
▁अनुवाद	-6673
▁बोर	-6674
ंसी	-6675
▁विद्यालयों	-6676
▁फाइन	-6677
चलित	-6678
कांड	-6679
▁ससुराल	-6680
▁कुशल	-6681
रेटर	-6682
▁फ्लैट	-6683
▁वाणिज्य	-6684
▁महि	-6685
चौ	-6686
▁स्किन	-6687
▁यकीन	-6688
▁गज	-6689
▁एकजुट	-6690
▁बोझ	-6691
▁मानक	-6692
ुसार	-6693
▁घी	-6694
▁घो	-6695
▁नक्सलियों	-6696
▁तेजस्वी	-6697
▁दस्तावे	-6698
▁भोग	-6699
▁सिपाही	-6700
ज़ल	-6701
▁वेस्टइंडीज	-6702
कला	-6703
▁भारतीयों	-6704
▁शिशु	-6705
▁पहाड़	-6706
▁रोगी	-6707
▁आरती	-6708
▁रिक्त	-6709
र्त	-6710
▁भाषाओं	-6711
िफिकेशन	-6712
▁निरीक्षक	-6713
▁दुर्ग	-6714
▁गणित	-6715
▁भागीदारी	-6716
द्दा	-6717
▁दन	-6718
द्व	-6719
▁नीरज	-6720
▁संभावित	-6721
▁कार्यकारी	-6722
▁नगरी	-6723
▁क्षण	-6724
''	-6725
▁पीस	-6726
▁पाण्ड	-6727
▁खोला	-6728
▁नैतिक	-6729
देशक	-6730
▁उजा	-6731
▁मात	-6732
▁शत्रु	-6733
▁एग्जाम	-6734
▁आध्या	-6735
▁परम्परा	-6736
▁मछली	-6737
▁आंगन	-6738
▁विक्रम	-6739
▁सम्पूर्ण	-6740
र्टी	-6741
▁उत्तम	-6742
▁क्यो	-6743
▁शास्त्र	-6744
▁देनी	-6745
▁वंचित	-6746
▁बैंकिंग	-6747
▁जाट	-6748
▁सलाहकार	-6749
ोजित	-6750
▁लिहाज	-6751
▁वाई	-6752
▁हेल	-6753
▁इंद्र	-6754
▁डिप्टी	-6755
ूष	-6756
राहे	-6757
ंगिक	-6758
गुरु	-6759
▁बहर	-6760
ाराम	-6761
▁राठ	-6762
▁श्रा	-6763
▁आवेद	-6764
▁प्रोटीन	-6765
▁रुचि	-6766
टीआई	-6767
ोश	-6768
▁अर्ध	-6769
▁हॉल	-6770
▁भला	-6771
▁पोषण	-6772
।”	-6773
▁भावनाओं	-6774
▁कैप्ट	-6775
▁पॉल	-6776
▁किस्म	-6777
▁आध्यात्म	-6778
▁आखिरकार	-6779
▁घेर	-6780
▁सशक्त	-6781
▁फंसे	-6782
▁ज़रूरी	-6783
▁व्यावसाय	-6784
टिक	-6785
▁राधा	-6786
▁डीसी	-6787
▁सोचने	-6788
▁अतिक्रमण	-6789
▁संतान	-6790
ेंच	-6791
▁अवतार	-6792
ुलेंस	-6793
परी	-6794
▁टेबल	-6795
▁तोड़ने	-6796
▁उद्यम	-6797
▁इन्होंने	-6798
▁गाँधी	-6799
दरी	-6800
▁औप	-6801
▁जनसंख्या	-6802
▁चरम	-6803
▁खैर	-6804
▁प्रतिनिधित्व	-6805
▁किराए	-6806
माज	-6807
▁ईद	-6808
▁अपलोड	-6809
▁लिहाजा	-6810
▁बाला	-6811
▁मलिक	-6812
▁नारी	-6813
▁समापन	-6814
▁कीमतें	-6815
▁कंगना	-6816
ंगाना	-6817
▁स्पिन	-6818
▁अनाज	-6819
▁लायक	-6820
डम	-6821
▁इसलिये	-6822
▁दरवाजा	-6823
स्सी	-6824
▁अवार्ड	-6825
▁वृद्ध	-6826
▁पाइप	-6827
▁बगैर	-6828
▁दिसम्बर	-6829
बड़	-6830
▁प्याज	-6831
▁कांड	-6832
▁लड़कियां	-6833
▁क्राइम	-6834
ब्बत	-6835
▁लकड़ी	-6836
▁त्रिव	-6837
▁फि	-6838
मर्श	-6839
▁प्रिंस	-6840
▁धाम	-6841
रेगा	-6842
▁कृष्णा	-6843
▁संपूर्ण	-6844
ेली	-6845
▁l	-6846
▁क्रमश	-6847
लै	-6848
▁इंस्टीट	-6849
▁ईमेल	-6850
▁शिक्षण	-6851
▁गिरोह	-6852
शय	-6853
यात्रा	-6854
▁लीजिए	-6855
▁सर्क	-6856
▁जवाहर	-6857
▁रिश्तों	-6858
▁हराया	-6859
▁खल	-6860
▁घन	-6861
▁पुष्प	-6862
▁हिंदुस्तान	-6863
ोंक	-6864
▁आधी	-6865
▁भरत	-6866
▁गर्ल	-6867
▁क्रिस	-6868
ट्यूब	-6869
▁समझना	-6870
तिष्क	-6871
▁बनते	-6872
▁कना	-6873
▁गिन	-6874
▁उत्पीड़न	-6875
▁नतीजा	-6876
▁वय	-6877
▁कष्ट	-6878
▁5	-6879
धाना	-6880
▁संयोजक	-6881
▁छीन	-6882
▁सदी	-6883
▁ज़रूर	-6884
▁उत्कृष्ट	-6885
▁ट्रॉ	-6886
▁गरम	-6887
▁आईसी	-6888
▁जुटी	-6889
▁स्पोर्ट	-6890
▁शताब्दी	-6891
▁डिट	-6892
▁मोटा	-6893
▁साहस	-6894
▁अग्नि	-6895
▁the	-6896
▁घुट	-6897
▁अलर्ट	-6898
्टे	-6899
▁कठोर	-6900
राई	-6901
▁ब्रह्मा	-6902
▁पुनः	-6903
▁रोगों	-6904
▁माला	-6905
▁कॉपी	-6906
▁एकड़	-6907
▁गोप	-6908
▁त्यौ	-6909
▁मल्टी	-6910
▁न्यायिक	-6911
▁कॉले	-6912
▁जॉब	-6913
वादियों	-6914
▁गली	-6915
▁ललित	-6916
▁पाँच	-6917
विजन	-6918
▁बीस	-6919
▁मूल्यांकन	-6920
दाद	-6921
▁पित	-6922
▁दादा	-6923
▁काउंसिल	-6924
▁शहद	-6925
▁मय	-6926
▁पकड़ने	-6927
▁स्त	-6928
▁दुः	-6929
▁नाइट	-6930
ारस	-6931
▁व्हाट्स	-6932
▁छुटकारा	-6933
▁पेशकश	-6934
▁मानसून	-6935
▁बचत	-6936
▁आंतर	-6937
▁फते	-6938
नीश	-6939
▁प्रतिबद्ध	-6940
▁बेड	-6941
▁अर्पित	-6942
▁तड़	-6943
▁लिखकर	-6944
▁जीवित	-6945
▁रिटर्न	-6946
डेंट	-6947
▁डोनाल्ड	-6948
▁नसी	-6949
▁मांगने	-6950
ोज़	-6951
▁लिखते	-6952
▁स्क्र	-6953
ारायण	-6954
▁स्नातक	-6955
▁दीन	-6956
टेक	-6957
▁इजाजत	-6958
▁उतनी	-6959
ामक	-6960
ोटी	-6961
▁सोचते	-6962
▁छेड़छाड़	-6963
एनएस	-6964
▁सरपंच	-6965
िक्सल	-6966
▁आभार	-6967
▁सुशांत	-6968
▁लापता	-6969
▁स्टॉक	-6970
▁प्रको	-6971
पीएस	-6972
सेट	-6973
▁तेलंगाना	-6974
▁विफल	-6975
मपुर	-6976
साम	-6977
▁पदार्थों	-6978
▁जुटा	-6979
▁पीछा	-6980
▁आला	-6981
ॉस	-6982
▁आर्मी	-6983
डनी	-6984
ायती	-6985
▁खरीदी	-6986
▁ग्रंथ	-6987
▁पठ	-6988
▁बहाने	-6989
▁सैंप	-6990
▁शरीफ	-6991
▁आन्द	-6992
▁आसार	-6993
िपल	-6994
किट	-6995
▁अधिवक्ता	-6996
▁बालिका	-6997
▁मिश्रण	-6998
▁आंतरिक	-6999
▁एसटी	-7000
▁जुटे	-7001
▁हॉट	-7002
▁केदार	-7003
▁फरी	-7004
▁प्रशांत	-7005
▁श्रीकृष्ण	-7006
▁जख	-7007
रीबन	-7008
टेन	-7009
▁हाईवे	-7010
▁फसलों	-7011
▁कर्त	-7012
▁मासिक	-7013
▁बैठने	-7014
विजय	-7015
▁जोड़े	-7016
एक्स	-7017
ुरू	-7018
हाद	-7019
मण	-7020
▁मजे	-7021
▁सेंसर	-7022
▁लू	-7023
र्चे	-7024
▁सहमत	-7025
क्षणिक	-7026
▁मैनेजमेंट	-7027
▁धर्	-7028
समय	-7029
▁कबीर	-7030
लेकिन	-7031
▁आपरा	-7032
▁अवध	-7033
शक्ति	-7034
▁उछ	-7035
▁न्यायमूर्ति	-7036
▁केंद्रित	-7037
▁देखता	-7038
▁पीट	-7039
▁सफ़	-7040
▁झील	-7041
▁आँख	-7042
लिटी	-7043
रेन	-7044
बैक	-7045
▁बरत	-7046
▁क्वाल	-7047
▁कीजिए	-7048
▁मेहता	-7049
▁घटनास्थल	-7050
▁कम्पनी	-7051
▁बढ़ाकर	-7052
▁बर्बाद	-7053
▁मजाक	-7054
▁नायक	-7055
▁किल	-7056
▁रुपया	-7057
▁करीबी	-7058
▁त्यौहार	-7059
▁डें	-7060
▁सांसदों	-7061
▁बेश	-7062
▁कॉर्	-7063
बै	-7064
कारियों	-7065
▁लौटने	-7066
ड्र	-7067
▁कोटा	-7068
ंपरिक	-7069
▁डीजी	-7070
▁पाली	-7071
▁उदयपुर	-7072
▁ऐस	-7073
▁हरिद्वार	-7074
ंधा	-7075
▁कैप्टन	-7076
▁निराशा	-7077
▁मांगे	-7078
शिक	-7079
▁निलंबित	-7080
▁वंश	-7081
लिस्ट	-7082
--------	-7083
▁संस्थापक	-7084
▁बनेगा	-7085
▁स्वयंसे	-7086
▁संतु	-7087
▁ज्ञात	-7088
पंथी	-7089
चित्र	-7090
▁सेवान	-7091
इंग	-7092
▁प्रतिस्प	-7093
▁स्थगित	-7094
▁उपकरणों	-7095
▁नंद	-7096
▁जात	-7097
आईसी	-7098
्रेसी	-7099
▁रैं	-7100
▁सतीश	-7101
▁विवादित	-7102
▁बृहस्पति	-7103
▁रणबीर	-7104
▁मिड	-7105
▁स्कू	-7106
▁गुलाब	-7107
▁आपराधिक	-7108
▁साझेदारी	-7109
▁प्रिंट	-7110
▁मोड	-7111
▁रेंज	-7112
▁बैठी	-7113
▁हवाला	-7114
▁साइंस	-7115
िप्ट	-7116
▁विभागीय	-7117
▁सराहना	-7118
▁अनि	-7119
▁अंकित	-7120
▁जोरदार	-7121
राहा	-7122
▁चुनौ	-7123
▁स्वाभाव	-7124
▁सर्दी	-7125
▁प्रॉ	-7126
शिंगटन	-7127
▁जेब	-7128
▁व्यावसायिक	-7129
▁पंचायतों	-7130
▁आकर्षण	-7131
▁पैट	-7132
▁अभियंता	-7133
▁ढा	-7134
फाइनल	-7135
▁स्थलों	-7136
▁पासवान	-7137
द्रोह	-7138
▁सुनते	-7139
▁दायित्व	-7140
▁हिल	-7141
▁सेवानिव	-7142
झाने	-7143
▁सनी	-7144
ैली	-7145
▁मेकअप	-7146
▁सियासी	-7147
▁शेख	-7148
▁प्लस	-7149
▁समर	-7150
▁मौल	-7151
▁उठाकर	-7152
▁बुलंद	-7153
▁हॉकी	-7154
▁सामु	-7155
न्ने	-7156
▁फोर्स	-7157
▁अंसारी	-7158
▁प्रशंसा	-7159
▁पारंपरिक	-7160
▁महत्त्व	-7161
▁परीक्षाओं	-7162
▁जाँच	-7163
▁बैल	-7164
▁शासकीय	-7165
▁पुत्री	-7166
▁तीव्र	-7167
▁देह	-7168
▁प्रसारण	-7169
▁पोष	-7170
▁प्रवी	-7171
▁अन्न	-7172
▁पुलिसकर्मियों	-7173
पीठ	-7174
▁बरेली	-7175
▁साइड	-7176
▁प्रधाना	-7177
केल	-7178
▁शॉप	-7179
▁यमुना	-7180
▁सदस्यता	-7181
डीओ	-7182
▁सोनू	-7183
एमएस	-7184
▁श्रेय	-7185
▁एजेंसियों	-7186
व्या	-7187
▁प्रारंभिक	-7188
पाली	-7189
नाल	-7190
▁पॉप	-7191
▁निंदा	-7192
िंग्स	-7193
▁निधि	-7194
▁रोह	-7195
▁डालें	-7196
▁हिर	-7197
भावना	-7198
▁लाए	-7199
▁कानूनों	-7200
▁डेवल	-7201
▁ध्	-7202
आज	-7203
▁कुर्सी	-7204
▁इलेक्ट्रिक	-7205
▁यथ	-7206
▁यज्ञ	-7207
▁टीमें	-7208
▁छोड़ा	-7209
▁सटी	-7210
▁टेक्नोलॉजी	-7211
▁काव्य	-7212
▁तैयारियों	-7213
▁लीला	-7214
and	-7215
▁पैनल	-7216
र्की	-7217
▁किराया	-7218
▁बिर	-7219
▁परिचाल	-7220
▁गंग	-7221
▁जानवरों	-7222
▁विशेषता	-7223
▁रत्न	-7224
स्टेबल	-7225
▁फार	-7226
▁साइबर	-7227
न्दा	-7228
▁शैल	-7229
▁शैक्षणिक	-7230
▁यूएस	-7231
▁गुड़	-7232
▁मस्तिष्क	-7233
ौड़	-7234
▁सीखने	-7235
सनीय	-7236
ुणा	-7237
▁बरसात	-7238
▁पॉलि	-7239
खल	-7240
▁बाघ	-7241
▁निपट	-7242
▁स्थानांतर	-7243
▁एचडी	-7244
खु	-7245
ur	-7246
रेशन	-7247
िस्ट्रेट	-7248
गोल	-7249
पेक्ष	-7250
▁फुटबॉल	-7251
▁यूरोपीय	-7252
्युनि	-7253
▁साहिब	-7254
▁अल्पसंख्यक	-7255
▁आज़ा	-7256
▁पंत	-7257
▁आर्	-7258
ँस	-7259
▁चिकित्सकों	-7260
▁रसोई	-7261
▁सालाना	-7262
▁दोनो	-7263
परा	-7264
▁फाउंडेशन	-7265
▁पुज	-7266
▁लाह	-7267
▁तरीकों	-7268
लांग	-7269
▁घड़ी	-7270
▁अनुराग	-7271
पोरेट	-7272
▁इजाफा	-7273
▁ओब	-7274
▁मोटरसाइ	-7275
ांतिक	-7276
▁हाथी	-7277
▁लक्ष्मण	-7278
▁कैसी	-7279
एप	-7280
▁निर्देशित	-7281
▁उपलब्धि	-7282
▁सेव	-7283
▁अगला	-7284
▁दशा	-7285
▁कॉलेजों	-7286
▁हल्का	-7287
▁सिर्फ़	-7288
▁तालिबान	-7289
जिन	-7290
▁फट	-7291
▁भीषण	-7292
▁मदन	-7293
▁अक्त	-7294
ंद्रा	-7295
वृ	-7296
▁चाइ	-7297
▁फॉलो	-7298
▁शक्त	-7299
▁डिफ	-7300
▁अंबानी	-7301
▁विडियो	-7302
▁पीएच	-7303
▁कहें	-7304
वण	-7305
▁सीन	-7306
▁पहने	-7307
▁सुष	-7308
वाड़ी	-7309
▁बिन	-7310
▁लीक	-7311
▁आॅ	-7312
▁उठाते	-7313
्यूशन	-7314
▁जादू	-7315
um	-7316
▁अकादमी	-7317
▁डिस्प्ले	-7318
om	-7319
शेखर	-7320
▁पृष्ठभूमि	-7321
▁नरेश	-7322
▁भ्रम	-7323
▁एहसास	-7324
▁रंजन	-7325
▁राखी	-7326
▁उजागर	-7327
बानी	-7328
लत	-7329
▁थोड़े	-7330
▁अच	-7331
िश्नर	-7332
करों	-7333
▁कस्बे	-7334
▁बेव	-7335
बाड़ी	-7336
▁मेडल	-7337
▁नईदुनिया	-7338
बॉ	-7339
त्तियों	-7340
▁मोर	-7341
▁रियल	-7342
▁उपायुक्त	-7343
जिस	-7344
लिखित	-7345
▁आड	-7346
नपुर	-7347
▁सिलसिले	-7348
▁फेर	-7349
▁रामदेव	-7350
ून्य	-7351
▁एमपी	-7352
▁जटिल	-7353
▁अफवाह	-7354
बड़े	-7355
▁सैफ	-7356
▁डेंगू	-7357
▁कामों	-7358
वेस्ट	-7359
▁न्यूय	-7360
▁यव	-7361
▁शाहिद	-7362
द्री	-7363
▁बताना	-7364
ैव	-7365
▁नम्बर	-7366
▁एम्स	-7367
▁निराश	-7368
▁अमल	-7369
भु	-7370
▁जश्न	-7371
▁टैग	-7372
▁आन्दोलन	-7373
▁राजमार्ग	-7374
▁मुरा	-7375
▁निशाने	-7376
▁कॉन्फ्रेंस	-7377
▁मेहमान	-7378
▁प्रतिष्ठित	-7379
▁दवाओं	-7380
▁अक्तूबर	-7381
▁ग्लोबल	-7382
▁चरणों	-7383
▁प्लेटफॉर्म	-7384
▁तैयारियां	-7385
▁पहनने	-7386
▁दुकानें	-7387
▁राजने	-7388
▁वेल	-7389
ैंट	-7390
जियाबाद	-7391
मक	-7392
▁कमिश्नर	-7393
▁एंब	-7394
▁आईडी	-7395
▁कॉर	-7396
ोटा	-7397
▁पाकर	-7398
▁मुँ	-7399
सागर	-7400
▁स्टोरी	-7401
▁लिप	-7402
▁बनाएं	-7403
▁पर्यटकों	-7404
धनों	-7405
पार	-7406
▁कनेक्ट	-7407
पोर	-7408
▁तकरीबन	-7409
पत्	-7410
▁अन्तर्गत	-7411
्रेन	-7412
दूरी	-7413
▁सावधान	-7414
▁अनंत	-7415
▁मदर	-7416
▁दुल्	-7417
ूरती	-7418
स्ड	-7419
▁सेल्सियस	-7420
▁सड	-7421
▁पेंट	-7422
▁स्ने	-7423
▁प्रश्	-7424
▁उपर	-7425
▁इंस्टीट्यूट	-7426
▁थर	-7427
▁फू	-7428
▁करीना	-7429
▁दुर्भाग्य	-7430
▁लैस	-7431
▁बेसिक	-7432
▁निवेशकों	-7433
च्छेद	-7434
▁अंकों	-7435
▁दुबई	-7436
▁पर्वत	-7437
सुन	-7438
▁खां	-7439
▁भागने	-7440
▁अनो	-7441
ेंजर	-7442
म्बई	-7443
▁नकली	-7444
फिर	-7445
▁सेकेंड	-7446
िटीज	-7447
▁उन्हे	-7448
▁किशोरी	-7449
▁जीतकर	-7450
▁कैप	-7451
▁अत्याचार	-7452
▁मंत्रिमंडल	-7453
▁कारा	-7454
▁भटक	-7455
▁दीक्षित	-7456
▁तूफान	-7457
अब	-7458
▁सौंपी	-7459
▁मीना	-7460
ंटन	-7461
पेपर	-7462
▁पड़ोस	-7463
इए	-7464
▁सीपी	-7465
ंजा	-7466
▁दुखी	-7467
▁पुण्य	-7468
▁भेदभाव	-7469
▁प्रत्याशियों	-7470
▁ताला	-7471
▁औरत	-7472
▁हेली	-7473
▁बकाया	-7474
आम	-7475
फेल	-7476
▁ओपी	-7477
▁एनडीए	-7478
▁सतह	-7479
▁वरुण	-7480
▁स्वाभाविक	-7481
ंठ	-7482
▁क्रोध	-7483
▁खन	-7484
▁तकली	-7485
▁नर्म	-7486
▁अन्यथा	-7487
▁ट्रांसफर	-7488
.,	-7489
▁सुल्	-7490
▁सस्ता	-7491
▁सना	-7492
▁डिस्ट	-7493
िंदर	-7494
▁हस्तक्षेप	-7495
▁रैंकिंग	-7496
धना	-7497
तीन	-7498
ँकि	-7499
▁बेटियों	-7500
▁थम	-7501
▁मन्द	-7502
▁ड्रग	-7503
वायर	-7504
▁पद्ध	-7505
न्वयन	-7506
▁ऐश्व	-7507
▁जना	-7508
▁बहरहाल	-7509
▁बैनर	-7510
▁रिपोर्ट्स	-7511
▁प्रोत्साहित	-7512
▁चौंका	-7513
▁फोटोग्रा	-7514
▁महत	-7515
▁पीड़ा	-7516
▁दही	-7517
चाप	-7518
ंबू	-7519
▁थानाध्यक्ष	-7520
▁हल्दी	-7521
▁हकी	-7522
▁मुआवजा	-7523
▁किशन	-7524
ेब	-7525
▁रेस	-7526
विर	-7527
▁सीरिया	-7528
▁लौटे	-7529
डन	-7530
सेन	-7531
भेद	-7532
ुल्ला	-7533
▁गंदगी	-7534
▁इनसे	-7535
▁तव	-7536
▁हल्के	-7537
▁पड़ेगी	-7538
▁एलईडी	-7539
▁सूचित	-7540
▁मिसाइल	-7541
▁गाजियाबाद	-7542
▁भूत	-7543
क्व	-7544
▁पैसों	-7545
▁अश्लील	-7546
▁प्रय	-7547
▁कमाने	-7548
▁सबका	-7549
▁बढ़िया	-7550
▁वैसा	-7551
ड़ियां	-7552
्यार	-7553
ुलकर	-7554
सिया	-7555
as	-7556
पने	-7557
जना	-7558
▁डील	-7559
▁वश	-7560
सनी	-7561
▁मान्य	-7562
▁अंदाजा	-7563
▁चयनित	-7564
मारियों	-7565
▁बजर	-7566
▁उग्र	-7567
▁मरम्मत	-7568
▁शक्तिशाली	-7569
▁अगुवाई	-7570
▁दोग	-7571
▁वितरित	-7572
▁गायक	-7573
▁साधा	-7574
▁हमलों	-7575
▁डबल	-7576
▁गणना	-7577
▁रिव	-7578
▁रहत	-7579
ेशर	-7580
▁परिचित	-7581
▁भ्रमण	-7582
▁टोक	-7583
▁शुभकामनाएं	-7584
परि	-7585
पटॉप	-7586
▁भाइयों	-7587
▁सूबे	-7588
▁टाल	-7589
▁आइस	-7590
▁सहारे	-7591
▁पर्दे	-7592
▁राजू	-7593
ब्बे	-7594
▁परेशानियों	-7595
▁नारियल	-7596
▁राग	-7597
▁देखो	-7598
▁आलिया	-7599
▁हथियारों	-7600
▁प्रारूप	-7601
▁चर्च	-7602
▁एक्टिव	-7603
▁डेम	-7604
▁काब	-7605
▁चौथी	-7606
▁पांड	-7607
▁कण	-7608
▁निदेशालय	-7609
बों	-7610
▁कमीशन	-7611
▁क्वि	-7612
▁प्रारम्भ	-7613
▁घटा	-7614
▁वचन	-7615
▁बाज़ार	-7616
▁पूर्णिमा	-7617
▁सौंद	-7618
▁महामंत्री	-7619
▁मणि	-7620
▁पूर्वा	-7621
▁चलिए	-7622
▁विनय	-7623
▁दर्शक	-7624
▁अध्यापक	-7625
▁रमन	-7626
▁धूल	-7627
▁सोनम	-7628
▁हिमाल	-7629
▁जगदी	-7630
▁इमारत	-7631
ंदीदा	-7632
▁चाचा	-7633
▁माओ	-7634
वाधिकार	-7635
▁मामूली	-7636
▁प्रतिरोध	-7637
▁मोटरसाइकिल	-7638
▁सुषमा	-7639
▁प्रवर्	-7640
▁हिस्सेदारी	-7641
दिष्ट	-7642
▁सख्ती	-7643
▁स्टोरेज	-7644
▁पैक	-7645
▁कुंभ	-7646
िय़	-7647
▁अनुदान	-7648
▁कामयाबी	-7649
▁उतरे	-7650
मुझे	-7651
▁गला	-7652
▁कूद	-7653
▁मूल्यों	-7654
▁ऑप्शन	-7655
▁सिद्धू	-7656
▁रजत	-7657
▁सोल	-7658
▁नदियों	-7659
▁अहसास	-7660
बिन	-7661
▁बक	-7662
▁बताती	-7663
▁निया	-7664
▁निभाई	-7665
गाई	-7666
▁इसने	-7667
पह	-7668
टेल	-7669
▁दक्षिणी	-7670
▁यूट्यूब	-7671
ौदा	-7672
▁तले	-7673
▁कम्	-7674
▁उठे	-7675
▁बोतल	-7676
▁लाठी	-7677
▁मजिस्ट्रेट	-7678
▁हितों	-7679
▁स्वराज	-7680
▁पसंदीदा	-7681
▁चलाई	-7682
दिल	-7683
▁कुंडली	-7684
ुली	-7685
▁नन	-7686
▁टूर	-7687
वायु	-7688
▁सम्बंधित	-7689
▁फैलाने	-7690
▁एथ	-7691
▁रैम	-7692
▁पराम	-7693
हू	-7694
टीसी	-7695
▁मकर	-7696
▁टाइगर	-7697
▁आरबीआई	-7698
▁नितिन	-7699
▁पेमेंट	-7700
▁अभिव्यक्ति	-7701
▁सीधी	-7702
▁अभय	-7703
▁दार	-7704
▁पसी	-7705
▁शौक	-7706
▁टीचर	-7707
▁फैक्ट्री	-7708
▁निश्च	-7709
▁महंगा	-7710
▁गवाह	-7711
▁मायने	-7712
▁काफ़ी	-7713
ानुसार	-7714
▁शिफ्ट	-7715
▁खरीदा	-7716
▁जिनसे	-7717
▁प्रस्तुति	-7718
▁घात	-7719
▁सामुदायिक	-7720
गमन	-7721
▁रिश्तेदार	-7722
▁आगमन	-7723
▁मॉड	-7724
स्करी	-7725
▁खरीदारी	-7726
▁k	-7727
क्षिक	-7728
▁डिम	-7729
▁पैन	-7730
▁संवेद	-7731
▁टेल	-7732
▁आईसीसी	-7733
▁चौथा	-7734
▁जप	-7735
चुअल	-7736
लीला	-7737
▁पहुँचा	-7738
▁चिप	-7739
राशि	-7740
▁अनदे	-7741
▁जहाज	-7742
भाई	-7743
▁इमाम	-7744
डीएस	-7745
▁कोने	-7746
▁लाना	-7747
लोत	-7748
▁परीक्ष	-7749
नाइट	-7750
▁सीए	-7751
▁चोरों	-7752
▁कमान	-7753
▁नक्ष	-7754
▁खातों	-7755
▁दरों	-7756
▁गुस्से	-7757
ंसल	-7758
▁हराकर	-7759
▁लड़कों	-7760
▁पुलिसकर्मी	-7761
▁मानवाधिकार	-7762
▁मार्क	-7763
▁एमबी	-7764
▁उठाना	-7765
▁तहसीलदार	-7766
▁बर्तन	-7767
ॉर्क	-7768
नामी	-7769
शोर	-7770
▁सब्सिडी	-7771
▁सर्जरी	-7772
▁शोभा	-7773
▁चतुर्थ	-7774
▁सेमीफाइनल	-7775
▁दुःख	-7776
▁एकाद	-7777
ण्डल	-7778
▁झलक	-7779
▁स्वीकृत	-7780
▁शून्य	-7781
▁हमसे	-7782
धीर	-7783
▁ऊँ	-7784
▁गारंटी	-7785
▁बाज	-7786
पादन	-7787
ूर्त	-7788
▁एपी	-7789
मुख्य	-7790
▁स्वर्ग	-7791
ाइज	-7792
▁असह	-7793
▁प्रवीण	-7794
▁फीचर्स	-7795
▁इशारा	-7796
▁हकीकत	-7797
।।	-7798
▁उमेश	-7799
▁टेक	-7800
क्ष्म	-7801
▁रोचक	-7802
धड़ी	-7803
▁बुकिंग	-7804
▁ब्रांच	-7805
▁मुल्	-7806
▁द्वीप	-7807
▁सुर्खियों	-7808
▁सेल्फी	-7809
▁पंजीकृत	-7810
▁जोकि	-7811
▁कृत	-7812
▁चैंपियनशिप	-7813
▁कार्	-7814
▁प्राचार्य	-7815
▁जानकर	-7816
▁मार्गदर्शन	-7817
ंवर	-7818
▁खुफिया	-7819
▁सस्ते	-7820
▁निकालकर	-7821
▁पुरूष	-7822
शर	-7823
▁पेस्ट	-7824
▁उर्दू	-7825
▁आत्मविश्वास	-7826
▁भजन	-7827
व्	-7828
▁सेकंड	-7829
▁बहू	-7830
पुल	-7831
▁दुनियाभर	-7832
▁कार्ब	-7833
▁फूलों	-7834
▁जगदीश	-7835
▁दुश्मन	-7836
▁सैनी	-7837
▁चाहें	-7838
क्रमण	-7839
▁ठेकेदार	-7840
कांग	-7841
ाइक	-7842
▁संसाधनों	-7843
▁मसी	-7844
▁मानता	-7845
▁कुत्ते	-7846
▁पुराण	-7847
▁कोयला	-7848
▁नारेबाजी	-7849
▁किलोग्राम	-7850
▁माफिया	-7851
▁अवकाश	-7852
▁सुरेंद्र	-7853
▁कनाडा	-7854
▁सैंपल	-7855
▁दर्जनों	-7856
ानिक	-7857
▁वास्तु	-7858
▁आवंटन	-7859
▁वोटर	-7860
▁मन्दिर	-7861
▁परिवर्त	-7862
▁शम	-7863
▁मारी	-7864
ूँगा	-7865
▁अमरीकी	-7866
▁टाइप	-7867
जुए	-7868
▁विहार	-7869
ोकर	-7870
▁प्रवासी	-7871
ंडों	-7872
▁महानगर	-7873
कर्ष	-7874
▁पॉलिसी	-7875
▁पेशेवर	-7876
▁जातक	-7877
▁अजमेर	-7878
जहां	-7879
▁सुपरस्टार	-7880
▁कुलपति	-7881
▁दुकानदार	-7882
▁प्रयाग	-7883
▁लाकर	-7884
▁ठाकरे	-7885
▁शेड	-7886
▁लौटा	-7887
श्यप	-7888
▁नमू	-7889
▁हल्की	-7890
ऊंगा	-7891
▁दिखाते	-7892
▁प्रमोशन	-7893
▁उपन	-7894
▁स्टार्ट	-7895
▁ठंडा	-7896
▁रेफर	-7897
▁ऊंची	-7898
▁जानवर	-7899
ियर्स	-7900
▁गाड़ियों	-7901
▁नहा	-7902
▁गड़बड़ी	-7903
▁सास	-7904
▁मजदूरी	-7905
▁तुम्हारा	-7906
प्रा	-7907
ष्ठी	-7908
▁दुस	-7909
▁प्रमोद	-7910
छात्राओं	-7911
गारी	-7912
ड्स	-7913
▁कपड़ा	-7914
▁सभ्यता	-7915
▁लैपटॉप	-7916
▁सौदा	-7917
▁तौ	-7918
सवाल	-7919
▁अवश	-7920
▁तस्करी	-7921
▁हत	-7922
▁गौरी	-7923
िलाई	-7924
▁टिप्स	-7925
▁श्वे	-7926
तांत्रिक	-7927
▁इकट्ठा	-7928
▁आध्यात्मिक	-7929
▁धीमी	-7930
▁असिस्ट	-7931
▁मंजिल	-7932
▁धोखाधड़ी	-7933
▁प्रता	-7934
▁तृण	-7935
प्रतिनि	-7936
▁उपहार	-7937
▁उसमे	-7938
▁जमाने	-7939
▁बजाए	-7940
▁मुसी	-7941
▁अनुबंध	-7942
पुट	-7943
ॉर	-7944
▁पान	-7945
▁परामर्श	-7946
▁इवेंट	-7947
▁एबी	-7948
▁रामपुर	-7949
▁डेब्यू	-7950
▁भूषण	-7951
▁प्रतिष्ठा	-7952
▁बिमारियों	-7953
▁सम्पन्न	-7954
▁दरबार	-7955
▁अंग्रेजों	-7956
याय	-7957
▁सक्	-7958
▁बृ	-7959
लीन	-7960
▁बन्द	-7961
▁मील	-7962
▁टोल	-7963
▁राउंड	-7964
▁गहराई	-7965
फुल	-7966
▁पद्म	-7967
▁बरस	-7968
▁नीम	-7969
▁एक्सच	-7970
▁लैंड	-7971
▁बख	-7972
▁किले	-7973
प्ल	-7974
च्छा	-7975
फ्टी	-7976
▁मानो	-7977
▁धमाके	-7978
▁उत्साहित	-7979
▁विवि	-7980
▁ईमानदारी	-7981
▁वसु	-7982
▁कांग्रेसी	-7983
▁चेतना	-7984
▁अड्डे	-7985
▁वॉलपेपर	-7986
जेक्शन	-7987
▁राफेल	-7988
गढ	-7989
▁उच	-7990
▁नाल	-7991
▁खोले	-7992
▁व्ही	-7993
▁दहेज	-7994
मेन	-7995
▁हड़क	-7996
मिन	-7997
▁अम्ब	-7998
▁फेड	-7999
▁नय	-8000
▁एजेंट	-8001
▁सील	-8002
▁खूबसूरती	-8003
▁प्रोट	-8004
मिशन	-8005
▁राजे	-8006
▁बंदर	-8007
▁टर्म	-8008
▁स्कूली	-8009
ामु	-8010
▁दया	-8011
▁वसूल	-8012
▁निभाने	-8013
्वाइंट	-8014
ष्ठा	-8015
un	-8016
▁हार्ड	-8017
▁नकदी	-8018
▁फोक	-8019
▁दिखता	-8020
▁तैनाती	-8021
▁जबरन	-8022
▁जहर	-8023
▁गड	-8024
▁खुलकर	-8025
▁फिटनेस	-8026
▁गाली	-8027
▁दीजिए	-8028
टित	-8029
▁दोगु	-8030
▁कम्युनि	-8031
▁पड़ताल	-8032
सीम	-8033
▁उज्जैन	-8034
▁अनुच्छेद	-8035
▁शिवा	-8036
फ़ा	-8037
▁चौराहे	-8038
▁201	-8039
▁व्यायाम	-8040
▁गहलोत	-8041
पीएफ	-8042
▁विवादों	-8043
▁नाज	-8044
▁सार्थ	-8045
▁लैब	-8046
▁हार्ट	-8047
▁बताता	-8048
▁परिस्थिति	-8049
स्त्रों	-8050
▁सुल्तान	-8051
▁सिलेंडर	-8052
ट्रिक	-8053
▁नेहा	-8054
▁तृतीय	-8055
▁पूछने	-8056
लभ	-8057
आईए	-8058
▁वाकई	-8059
▁वैध	-8060
▁जायजा	-8061
▁साम्रा	-8062
ौरी	-8063
▁आकलन	-8064
▁महानि	-8065
▁अफ़	-8066
ंधन	-8067
▁अन्तर	-8068
र्टर	-8069
am	-8070
▁फ्लाइट	-8071
▁विरासत	-8072
माया	-8073
▁हव	-8074
▁पशुओं	-8075
▁क्योकि	-8076
▁सैमसंग	-8077
▁सिरे	-8078
▁बिल्डिंग	-8079
▁नत	-8080
▁इटली	-8081
▁नींबू	-8082
▁तृणमूल	-8083
▁विदेशों	-8084
▁दाग	-8085
▁पार्किंग	-8086
▁हालाँकि	-8087
वाकर	-8088
▁ड्राइव	-8089
▁मेज	-8090
▁अजीत	-8091
क्रामक	-8092
राक	-8093
▁चर्चित	-8094
▁पट्टी	-8095
▁पीजी	-8096
▁साड़ी	-8097
▁माल्या	-8098
▁रेत	-8099
▁कपड़ों	-8100
▁कार्यशाला	-8101
▁समृद्ध	-8102
▁रिश्वत	-8103
रूप	-8104
▁नक्सली	-8105
ौरा	-8106
▁कम्प्यूटर	-8107
▁नवीनतम	-8108
▁हाफ	-8109
▁राजेन्द्र	-8110
ष्टमी	-8111
▁अर्चना	-8112
▁इनको	-8113
गठ	-8114
ुम	-8115
▁फेम	-8116
▁मुँह	-8117
▁समूहों	-8118
▁रोगियों	-8119
▁यी	-8120
▁उठता	-8121
▁बिस्तर	-8122
▁महतो	-8123
▁महादेव	-8124
मस	-8125
▁नौज	-8126
▁गुणों	-8127
अगर	-8128
▁गहरे	-8129
▁सृजन	-8130
िविटी	-8131
धियों	-8132
▁माफ	-8133
▁तकलीफ	-8134
▁तहस	-8135
▁वरना	-8136
▁अमृतसर	-8137
▁पासपोर्ट	-8138
▁रंगों	-8139
▁सुक	-8140
▁संतुलन	-8141
▁गड्ढ	-8142
▁निचले	-8143
▁प्रतिबंधित	-8144
▁सान	-8145
रोक	-8146
▁वक	-8147
▁यद	-8148
▁एजु	-8149
▁मानवीय	-8150
▁सीरियल	-8151
▁दिलाया	-8152
▁फंसा	-8153
▁योजनाएं	-8154
▁निरस्त	-8155
▁बुरे	-8156
▁खाल	-8157
▁चिंतित	-8158
▁अधिग्रहण	-8159
▁अभ्यर्थी	-8160
▁रित	-8161
िमी	-8162
▁स्पोर्ट्स	-8163
माइ	-8164
▁ख़त्म	-8165
विधि	-8166
हद	-8167
▁कैच	-8168
▁थल	-8169
▁मीरा	-8170
▁हानि	-8171
फिल	-8172
तिथि	-8173
▁घंटा	-8174
▁रिलीज़	-8175
▁ट्रेडिंग	-8176
ोरियल	-8177
▁ऑफिसर	-8178
ोत्तर	-8179
▁कैल	-8180
बूझ	-8181
ारक	-8182
िकरण	-8183
▁जदयू	-8184
▁सकेगी	-8185
▁चैल	-8186
ंकार	-8187
ॉप्टर	-8188
▁सीतार	-8189
▁प्रवृत्ति	-8190
el	-8191
▁पहलू	-8192
▁हरीश	-8193
वैधानिक	-8194
▁कार्यकार	-8195
▁चलकर	-8196
▁चाकू	-8197
▁महाप	-8198
▁तलाशी	-8199
▁मोती	-8200
डिंग	-8201
▁बगल	-8202
फरी	-8203
▁प्लेटफार्म	-8204
▁मुर्	-8205
▁आइये	-8206
▁कर्तव्य	-8207
रेख	-8208
सरत	-8209
▁छुपा	-8210
▁दशकों	-8211
▁उमर	-8212
▁फील्ड	-8213
▁कन्	-8214
▁बनारस	-8215
▁बोल्ड	-8216
▁बनाती	-8217
▁मोट	-8218
▁बदलते	-8219
▁मुजफ्फरपुर	-8220
▁किस्मत	-8221
▁लम्बे	-8222
▁राइ	-8223
▁सिंधिया	-8224
▁सदस्यीय	-8225
▁शैक्षिक	-8226
िथ	-8227
▁बीए	-8228
▁अकेला	-8229
▁वैदिक	-8230
▁प्रोत्साहन	-8231
▁ग्रो	-8232
▁निर्माताओं	-8233
▁सद्	-8234
▁चलना	-8235
▁रतन	-8236
▁बेंगलुरु	-8237
▁मिठाई	-8238
लीम	-8239
सर्जन	-8240
▁पढ़ते	-8241
▁लेनी	-8242
▁केम	-8243
▁सूक्ष्म	-8244
ान्त	-8245
▁बंधन	-8246
▁टेनिस	-8247
गि	-8248
ियाना	-8249
▁फतेह	-8250
▁बैन	-8251
▁गुहार	-8252
▁जलवायु	-8253
▁बेंच	-8254
नेश्वर	-8255
▁मृ	-8256
निर्माण	-8257
▁गीतों	-8258
बर्ग	-8259
▁सटीक	-8260
माटर	-8261
▁सांप्र	-8262
कालिक	-8263
▁पंजाबी	-8264
▁आंस	-8265
▁गृहमंत्री	-8266
▁चलाते	-8267
▁वध	-8268
▁नामों	-8269
सम्म	-8270
डीसी	-8271
▁वस्त्र	-8272
द्घ	-8273
▁सबकुछ	-8274
▁संज्ञान	-8275
▁उतारा	-8276
▁भंग	-8277
▁एनएच	-8278
▁नागपुर	-8279
▁प्रचलित	-8280
▁कंटे	-8281
▁ग्री	-8282
▁मूवी	-8283
▁आश्र	-8284
▁ईसाई	-8285
▁प्रतीत	-8286
▁टुकड़े	-8287
ाप	-8288
▁लंबित	-8289
न्हे	-8290
▁धारणा	-8291
▁बिंदु	-8292
▁नाते	-8293
▁छुट्ट	-8294
दाश्त	-8295
▁कड़े	-8296
▁जनजाति	-8297
▁विभाजन	-8298
▁सिंगा	-8299
▁रूसी	-8300
विन्द	-8301
▁आचार	-8302
▁बहि	-8303
▁मल्	-8304
ोत्तम	-8305
ियमित	-8306
▁महाभारत	-8307
▁वव	-8308
▁अलीगढ़	-8309
▁कार्या	-8310
माव	-8311
▁निकाले	-8312
▁अरो	-8313
▁आस्ट्रेलिया	-8314
▁यंत्र	-8315
▁मानवता	-8316
।''	-8317
▁गोविंद	-8318
▁एनएस	-8319
▁शिल्	-8320
▁जनप्रतिनि	-8321
▁कल्	-8322
आन	-8323
▁ग्राउंड	-8324
विज्ञान	-8325
▁श्रीदेवी	-8326
▁खन्ना	-8327
▁दिग्विजय	-8328
टेस्ट	-8329
▁एनजी	-8330
▁गन	-8331
▁तबाद	-8332
▁सम्मिल	-8333
▁बिल्ली	-8334
▁सबक	-8335
णियों	-8336
षी	-8337
▁मसले	-8338
▁कश्यप	-8339
ing	-8340
▁मैथ	-8341
्लू	-8342
▁निवार	-8343
▁गाल	-8344
▁पड़ते	-8345
▁विंडोज	-8346
धर्म	-8347
▁गोलीबारी	-8348
▁कठिना	-8349
▁संवेदना	-8350
▁गहन	-8351
▁महीना	-8352
▁कागज	-8353
▁जूते	-8354
▁लोकप्रियता	-8355
▁नर्मदा	-8356
▁मुम्बई	-8357
▁प्रतिनिधियों	-8358
▁पीड़ितों	-8359
▁मौर्य	-8360
▁ब्रज	-8361
▁सनसनी	-8362
▁कारों	-8363
▁पाण्डेय	-8364
il	-8365
वाहिक	-8366
▁गिनती	-8367
▁सिक्योर	-8368
▁द्विवेदी	-8369
▁भागवत	-8370
▁स्मार	-8371
▁बघ	-8372
वाए	-8373
▁व्हाइट	-8374
▁चैनलों	-8375
▁चंदन	-8376
▁शाही	-8377
▁देवेंद्र	-8378
▁संवैधानिक	-8379
▁सर्ट	-8380
▁मेयर	-8381
▁मधुर	-8382
ार्स	-8383
बीएसई	-8384
▁टमाटर	-8385
▁मुहिम	-8386
▁भट	-8387
▁बिछ	-8388
▁गुफा	-8389
पिक्सल	-8390
ुकता	-8391
▁सदैव	-8392
▁बेरोजगार	-8393
▁ज्व	-8394
▁मित	-8395
▁व्यय	-8396
▁परिचालन	-8397
▁टु	-8398
▁पटरी	-8399
▁डेवलप	-8400
▁आक्रमण	-8401
▁बाधित	-8402
▁कराते	-8403
▁लगाये	-8404
▁भागों	-8405
▁श्रद्धालु	-8406
विदा	-8407
▁घोटाला	-8408
सला	-8409
▁ट्रॉफी	-8410
थाम	-8411
▁फेस्ट	-8412
▁मानसिकता	-8413
▁पद्धति	-8414
पोरेशन	-8415
▁कुशवाहा	-8416
म्र	-8417
▁डायल	-8418
▁धनराशि	-8419
▁चार्ट	-8420
▁खट	-8421
▁कट्टर	-8422
जेंसी	-8423
▁मैक्स	-8424
▁ऐश्वर्या	-8425
जीपुर	-8426
▁हन	-8427
▁आंखें	-8428
▁झां	-8429
▁परे	-8430
▁आक्रोश	-8431
▁प्रतिभाग	-8432
ol	-8433
▁ज़मीन	-8434
▁गढ	-8435
▁कारगर	-8436
▁बसे	-8437
▁रेश	-8438
▁कन्न	-8439
▁डालते	-8440
▁नाबाद	-8441
▁तत	-8442
▁सहकारी	-8443
▁विक्रे	-8444
▁अर्थात्	-8445
▁झटके	-8446
▁जं	-8447
▁पुरी	-8448
▁अनशन	-8449
▁डेविड	-8450
▁बेन	-8451
▁सुने	-8452
▁इनक	-8453
▁चूक	-8454
चुर	-8455
▁डॉट	-8456
▁शशि	-8457
साइज	-8458
गीर	-8459
▁व्यास	-8460
▁हत्याकांड	-8461
▁बॉल	-8462
▁ब्लू	-8463
▁दस्तावेजों	-8464
िकासी	-8465
▁गेम्स	-8466
▁वाटर	-8467
▁दीर्	-8468
▁शीर्षक	-8469
▁बिख	-8470
▁पूर्ति	-8471
▁साधु	-8472
्तार	-8473
▁ख़िला	-8474
मुख्यमंत्री	-8475
▁श्रमिकों	-8476
▁आसन	-8477
▁हड़कंप	-8478
▁6	-8479
▁उद्योगों	-8480
▁नवाज	-8481
जोर	-8482
▁ओबामा	-8483
▁म्यूजिक	-8484
ृत्त	-8485
फेक्ट	-8486
एसी	-8487
▁सोसाय	-8488
सेल	-8489
▁प्रथा	-8490
▁स्पेन	-8491
▁नागरिकता	-8492
▁नक्षत्र	-8493
▁जानती	-8494
बरी	-8495
▁बॉर्डर	-8496
▁लेट	-8497
▁तुर्की	-8498
शाही	-8499
वीएम	-8500
▁उभ	-8501
▁जौहर	-8502
रेप	-8503
▁राज्यमंत्री	-8504
▁दिलाई	-8505
▁ग्रेड	-8506
श्ती	-8507
▁हिन्दुस्तान	-8508
▁बुलेट	-8509
क्टेयर	-8510
▁नायडू	-8511
▁थक	-8512
▁बहाल	-8513
▁शार	-8514
▁पहुंचते	-8515
▁पीर	-8516
▁सिस	-8517
ोत	-8518
▁फरीदाबाद	-8519
▁वेट	-8520
us	-8521
▁सम्मिलित	-8522
▁जुलूस	-8523
दर्शी	-8524
▁पौधों	-8525
▁गुलाम	-8526
▁कार्यकारिणी	-8527
दनी	-8528
्ह	-8529
मिली	-8530
▁कप्तानी	-8531
▁जितेंद्र	-8532
▁छल	-8533
▁पत्ते	-8534
▁विश्वसनीय	-8535
▁एकत्रित	-8536
▁अवॉर्ड	-8537
▁अमन	-8538
▁आइड	-8539
▁दहशत	-8540
▁आवंटित	-8541
▁वेरिएंट	-8542
▁सौंदर्य	-8543
▁असिस्टेंट	-8544
▁निगाह	-8545
▁सवा	-8546
▁फोकस	-8547
▁दुआ	-8548
▁निम्नलिखित	-8549
ॉइड	-8550
▁जैक	-8551
▁उपयोगकर्ता	-8552
▁हेल्प	-8553
ँग	-8554
ैनी	-8555
जिकल	-8556
▁सृष्टि	-8557
▁शुगर	-8558
पाट	-8559
ौलत	-8560
▁सौभाग्य	-8561
▁ईंधन	-8562
▁फर्म	-8563
▁लीजिये	-8564
फोड़	-8565
▁सरो	-8566
ch	-8567
▁डोज	-8568
्की	-8569
▁सिंगापुर	-8570
▁फिल्मी	-8571
▁थोक	-8572
▁कांस्टेबल	-8573
▁कहानियों	-8574
▁ऑर्डर	-8575
▁जातियों	-8576
▁पला	-8577
▁सिंघ	-8578
▁गों	-8579
ेशनों	-8580
▁रॉयल	-8581
▁अनूप	-8582
▁चिह्न	-8583
▁संतुष्ट	-8584
बूत	-8585
▁करूंगा	-8586
▁किम	-8587
▁चैट	-8588
▁एमएस	-8589
▁मीन	-8590
▁टकरा	-8591
▁पुत	-8592
▁संप्र	-8593
▁रोकथाम	-8594
▁इनकम	-8595
▁तरफ़	-8596
▁प्रीमियम	-8597
▁ईंटर	-8598
▁मीणा	-8599
▁जोश	-8600
ब्स	-8601
▁आईएएस	-8602
▁प्राथमिकी	-8603
▁ठहराया	-8604
▁सिग	-8605
▁ध्वनि	-8606
▁पत्रों	-8607
▁ईंटरनल	-8608
▁ट्रायल	-8609
▁तुमने	-8610
▁समुद्री	-8611
▁बर्थ	-8612
▁तब्दी	-8613
▁ठिक	-8614
▁पीडि़	-8615
▁फाइबर	-8616
▁संयोग	-8617
वाइ	-8618
ऊँ	-8619
▁बल्लेबाजों	-8620
बन्	-8621
▁किट	-8622
▁रजनी	-8623
▁कोचिंग	-8624
▁एंड्रॉयड	-8625
▁फिज	-8626
▁फीड	-8627
▁तोह	-8628
▁पाठकों	-8629
ुद्ध	-8630
नाई	-8631
▁नज़	-8632
▁सीआरपी	-8633
▁रेस्ट	-8634
▁बैड	-8635
शहर	-8636
▁शॉट	-8637
▁चश्म	-8638
▁रिटायर	-8639
▁समन्वय	-8640
मेह	-8641
▁सभाग	-8642
▁पर्दा	-8643
▁चलन	-8644
▁निस्त	-8645
▁लिखना	-8646
▁क्षतिग्रस्त	-8647
▁बैंड	-8648
▁दुल्हन	-8649
▁अनुपात	-8650
▁चैलेंज	-8651
▁घबरा	-8652
▁गर्दन	-8653
▁गणतंत्र	-8654
▁वप	-8655
▁कांट	-8656
मात्मा	-8657
▁चिल्ला	-8658
▁ईरानी	-8659
▁गेंदबाजों	-8660
बिया	-8661
▁ब्रिज	-8662
संच	-8663
▁निजात	-8664
▁हटाया	-8665
▁छानबीन	-8666
▁चिन्	-8667
▁भरोसे	-8668
▁चंद्रमा	-8669
▁समृद्धि	-8670
थित	-8671
▁रिहा	-8672
▁अग्रिम	-8673
▁दवाई	-8674
लाद	-8675
▁खेलना	-8676
▁फिरोज	-8677
पुरुष	-8678
▁एक्सचेंज	-8679
▁एनडी	-8680
▁साइन	-8681
▁डां	-8682
▁इले	-8683
▁सोसायटी	-8684
▁तेंदुलकर	-8685
▁हाज	-8686
▁गोपनीय	-8687
▁इड	-8688
▁वाणी	-8689
▁ट्यूब	-8690
किस्तान	-8691
▁आदिवासियों	-8692
ट्टा	-8693
▁पचास	-8694
▁संध्या	-8695
▁गोलियां	-8696
डोर	-8697
▁वोटिंग	-8698
िंक	-8699
कांक्षा	-8700
▁वीरेंद्र	-8701
▁इलेक्ट्रॉनिक	-8702
▁सुमन	-8703
▁तर्ज	-8704
विद	-8705
▁सूखे	-8706
▁सीबीएसई	-8707
▁वरीय	-8708
▁कविताओं	-8709
दायी	-8710
ल्ली	-8711
है	-8712
▁समग्र	-8713
▁निकासी	-8714
मंड	-8715
जगह	-8716
▁शमी	-8717
▁खुलने	-8718
▁खासतौर	-8719
लेन	-8720
पैठ	-8721
▁तिलक	-8722
ासना	-8723
धारणा	-8724
▁चौके	-8725
▁चैम्प	-8726
्वरी	-8727
▁सब्जियों	-8728
▁एक्टिंग	-8729
रलैंड	-8730
▁मोहल्ले	-8731
▁न्यूयॉर्क	-8732
▁उपरो	-8733
▁मुसीबत	-8734
et	-8735
▁जख्मी	-8736
▁कालोनी	-8737
▁संयंत्र	-8738
जील	-8739
▁गेल	-8740
▁क्वार्टर	-8741
▁कमलनाथ	-8742
▁पाएगा	-8743
▁सूजन	-8744
▁तलवार	-8745
वंश	-8746
▁मग	-8747
▁मातृ	-8748
▁परिश	-8749
▁पर्यटक	-8750
्ठ	-8751
▁कराकर	-8752
णीय	-8753
▁उतरने	-8754
▁नाव	-8755
▁ग्ला	-8756
▁निर्धारण	-8757
▁महानिदेशक	-8758
▁वाद	-8759
▁हत्य	-8760
▁नशा	-8761
▁धर्मशाला	-8762
▁तोमर	-8763
▁स्पेस	-8764
्यूम	-8765
▁सौरभ	-8766
पेश	-8767
▁एलान	-8768
▁दोषियों	-8769
▁हॉलीवुड	-8770
▁खरा	-8771
▁जोड़कर	-8772
▁पोषक	-8773
▁पवार	-8774
दिव	-8775
मेंद्र	-8776
▁स्टूडियो	-8777
▁नोटिफिकेशन	-8778
▁मुजफ्फरनगर	-8779
▁अटैक	-8780
▁इनाम	-8781
▁बादशाह	-8782
▁पार्वती	-8783
ूबी	-8784
▁एंबुलेंस	-8785
▁ऑड	-8786
▁बोन	-8787
▁क्व	-8788
▁अपनाने	-8789
▁गवर्नर	-8790
▁सहार	-8791
▁वोटों	-8792
▁सुमित	-8793
▁ख़ुद	-8794
▁बढ़ेगी	-8795
▁एजुकेशन	-8796
▁विकल्पों	-8797
▁घुसपैठ	-8798
ंबल	-8799
क्य	-8800
थान	-8801
स्तरीय	-8802
सब	-8803
▁शासक	-8804
▁समित	-8805
▁पर्सनल	-8806
अन	-8807
▁लोकतांत्रिक	-8808
▁चालान	-8809
▁मददगार	-8810
▁किताबें	-8811
भवी	-8812
▁सौदे	-8813
▁क्रीम	-8814
▁बहनों	-8815
▁चतुर्	-8816
▁नकल	-8817
▁डिस्क	-8818
▁सेलि	-8819
▁किंग्स	-8820
▁छक्के	-8821
घन	-8822
▁प्रसंग	-8823
▁एक्सपर्ट	-8824
▁कैफ	-8825
▁फाल	-8826
▁रजिस्टर	-8827
▁नैनी	-8828
▁मेगापिक्सल	-8829
▁पारा	-8830
▁चिद	-8831
▁आरोपितों	-8832
▁देवताओं	-8833
▁ख़िलाफ़	-8834
▁वज	-8835
▁भंडार	-8836
▁गुर्जर	-8837
▁रेड्डी	-8838
▁केयर	-8839
▁सस्ती	-8840
▁फैन	-8841
▁उपरोक्त	-8842
▁किडनी	-8843
▁बया	-8844
िम्मे	-8845
▁मम्मी	-8846
▁ऑयल	-8847
▁सुधारने	-8848
▁रिंग	-8849
▁लेनदेन	-8850
ैग	-8851
ौफ	-8852
▁एजें	-8853
▁जेपी	-8854
राइ	-8855
िमय	-8856
▁दंप	-8857
▁लटका	-8858
▁महार	-8859
निर्देश	-8860
▁कतार	-8861
▁चिकित्सालय	-8862
▁अड	-8863
पकों	-8864
गेटिव	-8865
▁कोष	-8866
▁प्रसारित	-8867
▁मनाई	-8868
कार्प	-8869
▁मस्ती	-8870
▁धीर	-8871
▁ज्	-8872
▁दृढ़	-8873
ंकि	-8874
आईपी	-8875
▁कहत	-8876
▁प्रतिद्व	-8877
▁सूच	-8878
▁मार्क्स	-8879
▁सज	-8880
▁अभिभावकों	-8881
मुक्त	-8882
ोला	-8883
▁बदौलत	-8884
▁उपायों	-8885
▁सबकी	-8886
▁लम्बी	-8887
▁घातक	-8888
▁आडवाणी	-8889
कोण	-8890
ोनेशिया	-8891
दूत	-8892
▁फ्रेंड	-8893
▁बेकार	-8894
▁टेलीविजन	-8895
ir	-8896
▁दुकानदारों	-8897
रात्रि	-8898
▁कमजोरी	-8899
काव	-8900
▁लेगा	-8901
गाव	-8902
▁अग्रणी	-8903
▁अवधारणा	-8904
▁जगा	-8905
▁डीएसपी	-8906
▁लोकल	-8907
दयाल	-8908
▁विरू	-8909
▁असं	-8910
▁मच्छ	-8911
▁डाॅ	-8912
एगी	-8913
▁देवर	-8914
▁निर्मल	-8915
▁डायरेक्ट	-8916
▁तब्दील	-8917
▁आर्टिकल	-8918
▁कहर	-8919
▁हनी	-8920
▁समझाने	-8921
थियों	-8922
▁सावन	-8923
ानंद	-8924
▁खाई	-8925
▁ज़िन्दगी	-8926
पोर्टर	-8927
▁मिनी	-8928
▁इन्द्र	-8929
वारे	-8930
▁ऊपरी	-8931
▁अछ	-8932
▁धरने	-8933
राबरी	-8934
डिय़	-8935
तिया	-8936
▁बीती	-8937
▁ईयर	-8938
▁निष्पक्ष	-8939
▁साय	-8940
▁भुव	-8941
▁डिज़	-8942
▁राशिफल	-8943
▁गन्ना	-8944
▁अभियुक्त	-8945
▁रखेंगे	-8946
▁एल्	-8947
▁माँग	-8948
▁यल	-8949
▁बांस	-8950
▁प्रवर्तन	-8951
▁वर्गों	-8952
इयां	-8953
▁हैरानी	-8954
▁शॉपिंग	-8955
▁फलों	-8956
▁मंजूर	-8957
श्मी	-8958
कपा	-8959
▁पिक	-8960
▁प्रेशर	-8961
▁रामायण	-8962
▁कचरा	-8963
▁सार्थक	-8964
▁स्टेशनों	-8965
कीपर	-8966
शीट	-8967
▁डायब	-8968
▁पिला	-8969
▁इस्लामिक	-8970
▁लाज	-8971
▁नीलामी	-8972
ंगार	-8973
▁उलझ	-8974
द्वाज	-8975
▁तेरे	-8976
▁वैकल्प	-8977
▁सचिवालय	-8978
▁पांचवें	-8979
▁पाचन	-8980
गठबंधन	-8981
▁शिरकत	-8982
▁मजेदार	-8983
गिन	-8984
▁जूस	-8985
▁गोला	-8986
▁समानता	-8987
▁सैय	-8988
▁गर्ग	-8989
.।	-8990
मेंस	-8991
▁प्रभावशाली	-8992
▁नान	-8993
▁त्वर	-8994
▁डेरा	-8995
जद	-8996
▁महावीर	-8997
▁सभागार	-8998
▁वैकल्पिक	-8999
▁ट्रेंड	-9000
▁मौलाना	-9001
▁मुकदमे	-9002
▁आभ	-9003
▁बढ़ेगा	-9004
▁स्वदेश	-9005
▁दिव्यांग	-9006
टॉप	-9007
ंगत	-9008
▁औपचारिक	-9009
तमंद	-9010
▁अटक	-9011
▁सूख	-9012
▁इको	-9013
▁ठहर	-9014
▁विवेकान	-9015
निर	-9016
▁ईडी	-9017
▁डिलीवरी	-9018
▁हाइड	-9019
▁आनन्द	-9020
ेक्स	-9021
▁एडमिशन	-9022
तोड़	-9023
▁मोहल्ला	-9024
▁दीं	-9025
▁मृतकों	-9026
▁नाले	-9027
पोषण	-9028
▁ट्रां	-9029
▁स्टडी	-9030
सीबी	-9031
▁दक्ष	-9032
▁सेवक	-9033
▁देसी	-9034
▁फुटेज	-9035
▁भैया	-9036
▁फैमिली	-9037
▁रचनात्मक	-9038
▁अनुभवी	-9039
▁गोदाम	-9040
▁फ्रेंच	-9041
▁स्ल	-9042
▁डिमांड	-9043
बलों	-9044
▁उदा	-9045
▁पठान	-9046
▁विगत	-9047
▁मोर्चे	-9048
▁लता	-9049
शैली	-9050
ig	-9051
▁शेट	-9052
▁जक	-9053
▁v	-9054
न्ग	-9055
▁साम्राज्य	-9056
▁फ़र	-9057
▁बाबत	-9058
क्टी	-9059
जेक्ट	-9060
▁एस्ट	-9061
▁मुन्ना	-9062
कुश	-9063
▁संभालने	-9064
▁गतिविधि	-9065
▁पिच	-9066
▁पादु	-9067
▁वीजा	-9068
▁वीक	-9069
▁चालकों	-9070
▁आईआईटी	-9071
▁एकादशी	-9072
▁ज़िंदगी	-9073
▁तस	-9074
▁निकलते	-9075
▁पूनम	-9076
पत्ति	-9077
▁आईजी	-9078
▁चेन	-9079
▁केशव	-9080
प्लो	-9081
▁अनुशासन	-9082
▁प्रदर्शनी	-9083
▁यथा	-9084
▁मतगणना	-9085
▁मुरादाबाद	-9086
▁आंसू	-9087
बेट	-9088
▁दिव्य	-9089
▁विनिमय	-9090
▁फेस्टिव	-9091
ुद्दीन	-9092
▁साक्षी	-9093
ेशिया	-9094
▁बंदी	-9095
▁त्वरित	-9096
ैर्य	-9097
▁प्रश्नों	-9098
मान्य	-9099
▁चलो	-9100
▁शॉर्ट	-9101
▁jp	-9102
▁ब्राउ	-9103
▁हिंसक	-9104
वंशी	-9105
▁पागल	-9106
▁फर्स्ट	-9107
प्पू	-9108
▁कटा	-9109
शुल्क	-9110
▁बेरोजगारी	-9111
▁कर्ण	-9112
▁विद्वान	-9113
कक्ष	-9114
ऊं	-9115
▁ध्रु	-9116
िशियल	-9117
▁सहारनपुर	-9118
▁बवाल	-9119
▁भ्रष्ट	-9120
▁नोटों	-9121
▁वाशिंगटन	-9122
▁अनियमित	-9123
पत्नी	-9124
▁देशभ	-9125
▁देखेंगे	-9126
▁अश्विन	-9127
▁ब्लॉ	-9128
▁शू	-9129
▁नाश्	-9130
▁अतीत	-9131
▁सत्यापन	-9132
▁सिंगल	-9133
▁आरम्भ	-9134
▁घटनाक्रम	-9135
▁रदर	-9136
▁मिर्जा	-9137
िफिकेट	-9138
▁हिंदुओं	-9139
वात	-9140
▁डब्ल्यू	-9141
▁चुनौतियों	-9142
▁बसा	-9143
-,	-9144
बोट	-9145
▁भगा	-9146
▁जलाने	-9147
▁प्रोडक्शन	-9148
▁ईस	-9149
▁इंफ	-9150
▁रग	-9151
मेडी	-9152
▁पेट्रोलियम	-9153
▁बस्तर	-9154
▁मोटी	-9155
▁पैटर्न	-9156
गना	-9157
▁जनहित	-9158
▁हेक्टेयर	-9159
▁असुर	-9160
▁उठने	-9161
णन	-9162
▁ताना	-9163
कानेर	-9164
▁मैक	-9165
▁शेयरों	-9166
▁परमात्मा	-9167
▁मुनाफा	-9168
▁निष्कर्ष	-9169
▁पग	-9170
▁अख्तर	-9171
हमी	-9172
▁लाभदायक	-9173
र्षि	-9174
▁जताते	-9175
उर	-9176
▁कंधे	-9177
▁रिलेशन	-9178
▁मसल	-9179
ांतों	-9180
▁ओबीसी	-9181
्हा	-9182
▁बैच	-9183
ज्जा	-9184
▁गार्डन	-9185
▁बृज	-9186
▁जायसवाल	-9187
▁उप्र	-9188
▁शिवपाल	-9189
▁फ्लोर	-9190
एचसी	-9191
ीरपुर	-9192
▁नोक	-9193
▁बॉय	-9194
एचओ	-9195
▁उन्नत	-9196
▁दिखी	-9197
▁लहसुन	-9198
▁अंबेडकर	-9199
▁निवारण	-9200
नायक	-9201
▁एसएस	-9202
▁आरक्षित	-9203
जैसे	-9204
▁कथन	-9205
▁कीजिये	-9206
स्पर	-9207
▁तोड़कर	-9208
▁आईएएनएस	-9209
दीन	-9210
▁छी	-9211
▁गैंगरेप	-9212
▁विमर्श	-9213
▁अब्दुल्ला	-9214
▁मिसाल	-9215
▁तेज़	-9216
▁पीयू	-9217
▁दाह	-9218
▁सोचना	-9219
▁रब	-9220
▁राघ	-9221
▁खिड़की	-9222
▁फैन्स	-9223
स्थापित	-9224
▁कलेक्शन	-9225
गान	-9226
▁बृहस्पतिवार	-9227
▁सई	-9228
▁फ्रे	-9229
▁अर्जित	-9230
द्धा	-9231
▁वायुसेना	-9232
कन	-9233
▁बराबरी	-9234
▁शिकायतों	-9235
▁असा	-9236
महल	-9237
▁उत्स	-9238
गाम	-9239
▁निर्देशों	-9240
ंगाबाद	-9241
▁मनरेगा	-9242
्बा	-9243
▁इंडोनेशिया	-9244
निज	-9245
▁तारा	-9246
▁px	-9247
▁बीपी	-9248
▁धैर्य	-9249
बोर्ड	-9250
▁पीपी	-9251
सिस	-9252
पुरम	-9253
िनल	-9254
▁देहा	-9255
▁e	-9256
▁चंद्रशेखर	-9257
▁विक्र	-9258
▁गुड	-9259
▁लख	-9260
▁कवाय	-9261
▁महागठबंधन	-9262
▁तथ्यों	-9263
▁अनू	-9264
बर्ट	-9265
▁आचरण	-9266
▁सलामी	-9267
▁खपत	-9268
▁मूड	-9269
▁jpg	-9270
▁क्रांतिक	-9271
▁तीर	-9272
▁नौसेना	-9273
▁दुसरे	-9274
ब्रे	-9275
▁सुधीर	-9276
▁सरकारें	-9277
▁भागलपुर	-9278
▁बचें	-9279
▁बेशक	-9280
▁व्यंग	-9281
▁शेट्टी	-9282
▁जरूरतों	-9283
आईएस	-9284
▁काय	-9285
▁हुयी	-9286
▁गिफ्ट	-9287
▁सपनों	-9288
▁.-	-9289
▁निशुल्क	-9290
हेल	-9291
▁आश्व	-9292
▁नकद	-9293
भद्र	-9294
▁अतुल	-9295
ल्डर	-9296
▁पेन	-9297
▁महक	-9298
ष्यों	-9299
▁स्टे	-9300
▁बचाया	-9301
ोरा	-9302
द्वीप	-9303
▁रोडवेज	-9304
▁रचन	-9305
▁जनसभा	-9306
▁माननीय	-9307
▁प्रभार	-9308
▁सलाम	-9309
▁प्रोसे	-9310
▁तत्वा	-9311
▁इजरा	-9312
ौत	-9313
▁अशु	-9314
▁वहीँ	-9315
ष्मान	-9316
▁प्रशंस	-9317
▁कांस	-9318
▁स्त्र	-9319
▁सर्टिफिकेट	-9320
ाया	-9321
▁इसपर	-9322
▁हलचल	-9323
▁क्वालिटी	-9324
ोड़ा	-9325
▁,.	-9326
ौनी	-9327
▁धाराओं	-9328
पयोग	-9329
▁बलर	-9330
▁भारद्वाज	-9331
्राट	-9332
वृत्ति	-9333
▁वादे	-9334
▁मधुमेह	-9335
▁चारा	-9336
▁जंगलों	-9337
▁सांप्रदायिक	-9338
▁समझाया	-9339
▁कारोबारियों	-9340
द्यपि	-9341
▁काटकर	-9342
▁सुनाया	-9343
▁स्नै	-9344
शिव	-9345
▁श्रमिक	-9346
▁महासभा	-9347
लेवा	-9348
▁समू	-9349
▁प्रोफेशन	-9350
▁सातवें	-9351
▁इमरजेंसी	-9352
एफसी	-9353
▁निश्चय	-9354
▁त्रिपुरा	-9355
▁शिकायतें	-9356
नीर	-9357
जियम	-9358
▁इस्लामी	-9359
▁बताये	-9360
▁नाना	-9361
▁बजकर	-9362
▁अबतक	-9363
▁जहरी	-9364
▁परिष	-9365
▁सिंगर	-9366
▁स्पर्धा	-9367
रि	-9368
स्कूल	-9369
▁जनक	-9370
▁मतभेद	-9371
ोहित	-9372
▁खासी	-9373
▁तादाद	-9374
▁दादी	-9375
▁नुस्	-9376
▁मेजर	-9377
▁ऋतु	-9378
वासीय	-9379
▁स्टूडेंट	-9380
ूढ़	-9381
ad	-9382
▁समाजसे	-9383
▁बहिष्कार	-9384
▁मुहर	-9385
पंथ	-9386
लीट	-9387
▁उपरांत	-9388
▁प्रीमियर	-9389
▁पुजारी	-9390
▁टैब	-9391
कॉ	-9392
▁डीजीपी	-9393
▁हिमालय	-9394
्शा	-9395
▁सीएस	-9396
▁क़ान	-9397
▁गिरि	-9398
▁खुराक	-9399
▁अखबारों	-9400
ag	-9401
▁छोड	-9402
▁फ़ाइल	-9403
न्थ	-9404
▁रहेंगी	-9405
▁हिला	-9406
ंबरम	-9407
▁पहच	-9408
वला	-9409
▁राख	-9410
▁बदलकर	-9411
▁नाच	-9412
▁झगड़ा	-9413
▁मिक्स	-9414
▁परिवर्तित	-9415
▁पिछड़ा	-9416
▁उदार	-9417
ूंगी	-9418
▁कमांडर	-9419
▁भती	-9420
▁किताबों	-9421
तरह	-9422
▁स्ट्राइक	-9423
▁महंगी	-9424
▁प्रॉप	-9425
▁गुला	-9426
▁कवायद	-9427
▁प्रिया	-9428
▁प्राइमरी	-9429
▁रामलीला	-9430
▁पीटा	-9431
ंटल	-9432
▁निर्दलीय	-9433
▁इंग्लिश	-9434
▁जीती	-9435
▁मोन	-9436
▁संशोधित	-9437
▁स्पीकर	-9438
▁टैं	-9439
▁विविधता	-9440
▁पदो	-9441
न्तर	-9442
▁कलम	-9443
▁स्मरण	-9444
▁सिग्	-9445
▁सत्तार	-9446
▁पिल	-9447
▁फूट	-9448
▁रिश्तेदारों	-9449
▁यूपीए	-9450
▁ईवीएम	-9451
ान्यास	-9452
क्षकों	-9453
धक	-9454
▁गुन	-9455
▁कूट	-9456
िसोड	-9457
ूला	-9458
कूट	-9459
▁पिछड़े	-9460
▁टैंक	-9461
तिन	-9462
▁बंदूक	-9463
▁सीने	-9464
▁हमलावर	-9465
▁बीकानेर	-9466
ंझ	-9467
लता	-9468
ंधर	-9469
▁कश्मी	-9470
▁सहन	-9471
िवेश	-9472
▁देशी	-9473
लिकेशन	-9474
ख्ता	-9475
▁दिखाकर	-9476
▁पक्षी	-9477
▁प्रताड़	-9478
ation	-9479
▁कलेक्ट	-9480
▁दिलचस्पी	-9481
▁उजाला	-9482
▁आएंगी	-9483
▁पासवर्ड	-9484
महा	-9485
▁सिक्योरिटी	-9486
▁10	-9487
▁विद्रोह	-9488
▁कस्टम	-9489
▁ख़ुशी	-9490
▁दबो	-9491
▁तंग	-9492
▁राइट	-9493
▁दलाल	-9494
▁दामों	-9495
▁कद	-9496
▁अपनाया	-9497
▁सेवानिवृत्त	-9498
▁बनेगी	-9499
▁उर	-9500
लीकेशन	-9501
▁अंगू	-9502
▁प्रबल	-9503
▁हानिक	-9504
▁उपलब्धता	-9505
▁एंज	-9506
▁टूटने	-9507
▁कलश	-9508
▁पादुकोण	-9509
बहुत	-9510
▁निः	-9511
▁कांफ्रेंस	-9512
▁ठग	-9513
▁लाभकारी	-9514
▁सुरक्षाबलों	-9515
▁सोया	-9516
▁सियासत	-9517
▁उबाल	-9518
▁यद्यपि	-9519
▁दिखाए	-9520
▁नास	-9521
▁खातिर	-9522
डीह	-9523
▁लेखा	-9524
▁काउंटर	-9525
▁सीआरपीएफ	-9526
▁वर्षो	-9527
▁डेन	-9528
▁मज़ा	-9529
▁सैलरी	-9530
▁चिर	-9531
▁क्लीन	-9532
▁बघेल	-9533
▁जौन	-9534
▁ब्रि	-9535
▁आवासीय	-9536
▁उमा	-9537
▁शिलान्यास	-9538
▁परत	-9539
▁खज	-9540
▁शासित	-9541
छोटे	-9542
▁हेयर	-9543
▁नमाज	-9544
ामाबाद	-9545
▁पका	-9546
छित	-9547
▁एएस	-9548
▁गर्मियों	-9549
▁षक	-9550
▁युवराज	-9551
▁रियर	-9552
▁लगीं	-9553
▁स्वत	-9554
पूर्ति	-9555
▁हेमंत	-9556
▁लेटेस्ट	-9557
▁नफर	-9558
▁शर्तों	-9559
द्वारा	-9560
▁औषधि	-9561
▁चलाए	-9562
ल्फ	-9563
▁विश्वविद्यालयों	-9564
ड्डू	-9565
▁जेम	-9566
▁एपिसोड	-9567
▁अनदेखी	-9568
▁ब्राजील	-9569
▁आएं	-9570
साइटी	-9571
▁बचना	-9572
▁चुनने	-9573
्यूज	-9574
▁बची	-9575
दगी	-9576
▁सीएमओ	-9577
▁भुगत	-9578
ent	-9579
▁अर्धशत	-9580
मुच	-9581
घात	-9582
▁प्रतिस्पर्धा	-9583
▁एसबीआई	-9584
पुत्र	-9585
▁दांव	-9586
▁आरटी	-9587
▁प्रतीक्षा	-9588
▁व्यापारिक	-9589
▁सुखद	-9590
संचार	-9591
▁ठगी	-9592
▁ताक	-9593
▁आभूषण	-9594
▁प्रदर्शनकारियों	-9595
स्टिंग	-9596
सेंजर	-9597
▁सीबी	-9598
▁कंड	-9599
▁स्मिथ	-9600
▁कारक	-9601
▁बर्दाश्त	-9602
▁प्रीति	-9603
▁मार्केटिंग	-9604
▁भरकर	-9605
▁चिदंबरम	-9606
▁दांत	-9607
▁अनल	-9608
▁जर्	-9609
▁डिप्लो	-9610
ठों	-9611
ांशु	-9612
शुदा	-9613
▁आवागमन	-9614
▁ग्रेजुए	-9615
म्बे	-9616
गाड़	-9617
▁वन्य	-9618
▁व्याप्त	-9619
▁चलेगी	-9620
▁संक्रमितों	-9621
▁स्त्रियों	-9622
▁प्रकोप	-9623
▁स्मारक	-9624
▁कन्ह	-9625
नाइटेड	-9626
▁विनाश	-9627
▁लेफ्ट	-9628
▁नाट	-9629
प्ताहिक	-9630
▁डिपार्टमेंट	-9631
▁एंटर	-9632
▁मौलिक	-9633
▁प्रॉपर्टी	-9634
कार्ट	-9635
▁चुप्पी	-9636
▁छापा	-9637
▁जिनको	-9638
▁चतुर्वेदी	-9639
▁इमेज	-9640
▁मोहित	-9641
▁ग्रहों	-9642
माला	-9643
▁डाइट	-9644
टरीना	-9645
▁खोजने	-9646
▁निस्तारण	-9647
▁अधू	-9648
▁मिमी	-9649
▁भिड़	-9650
पक्षीय	-9651
▁अनिश्चित	-9652
▁खासा	-9653
▁सोसाइटी	-9654
▁प्रयागराज	-9655
▁पूर्वोत्तर	-9656
भीत	-9657
लाम	-9658
अंदा	-9659
▁उतरी	-9660
▁स्टेज	-9661
▁जर्मन	-9662
्ग	-9663
▁पढ़कर	-9664
▁आगा	-9665
▁सम्बन्धित	-9666
▁आपूर्	-9667
▁ठप	-9668
▁कैटरीना	-9669
▁स्वयंसेवक	-9670
▁नक्	-9671
▁सम्पर्क	-9672
▁सरसों	-9673
▁आयुष्मान	-9674
▁संबोधन	-9675
▁पांव	-9676
▁अंडे	-9677
▁हानिकारक	-9678
ामे	-9679
ट्टे	-9680
▁अरुणा	-9681
▁स्थितियों	-9682
▁नमस्कार	-9683
▁ढांचे	-9684
▁कार्यो	-9685
▁विधा	-9686
▁तबी	-9687
▁परिस	-9688
यानक	-9689
र्ता	-9690
▁सुहा	-9691
▁दबंग	-9692
▁इसम	-9693
▁भुवनेश्वर	-9694
▁भगवान्	-9695
▁रसायन	-9696
▁मानकर	-9697
▁मोम	-9698
▁दूंगा	-9699
▁त्यागी	-9700
विन	-9701
▁केदारनाथ	-9702
▁गोस्वामी	-9703
▁शाल	-9704
▁उपवास	-9705
▁प्रयोगशाला	-9706
▁आमदनी	-9707
▁समाय	-9708
▁बनेंगे	-9709
▁धर्मेंद्र	-9710
▁अनी	-9711
▁सेले	-9712
▁उलट	-9713
▁सक्सेना	-9714
▁ईंट	-9715
▁घास	-9716
▁भगव	-9717
▁राध	-9718
▁अक्षर	-9719
दित्य	-9720
▁बुराई	-9721
बेल	-9722
▁जानलेवा	-9723
▁सवारी	-9724
ँव	-9725
न्नति	-9726
देही	-9727
▁चुक	-9728
▁सता	-9729
स्पद	-9730
▁लिव	-9731
ुतोष	-9732
▁पोट	-9733
▁बोध	-9734
▁and	-9735
▁दमदार	-9736
▁पण	-9737
▁नफरत	-9738
▁किसे	-9739
▁मौन	-9740
▁चित्त	-9741
▁जलन	-9742
▁7	-9743
▁अदरक	-9744
▁दीदी	-9745
स्थी	-9746
▁बसें	-9747
▁बाध्य	-9748
▁ज़िम्मे	-9749
▁कभ	-9750
▁एक्सर	-9751
▁जैविक	-9752
▁दीर्घ	-9753
▁कोषा	-9754
ज्वल	-9755
▁सुब	-9756
▁फैलने	-9757
▁मराठी	-9758
श्योर	-9759
▁बलिदान	-9760
▁आराधना	-9761
▁रेटिंग	-9762
▁दिखती	-9763
शीलता	-9764
▁चूर्ण	-9765
▁उठी	-9766
▁पलायन	-9767
▁शिल्पा	-9768
▁सीमाओं	-9769
▁यवस	-9770
▁नींव	-9771
▁सेब	-9772
▁हमीरपुर	-9773
▁सच्चे	-9774
▁जानकारियां	-9775
▁आओ	-9776
वाट	-9777
▁वैल	-9778
▁सूट	-9779
विचार	-9780
▁बताएं	-9781
▁कैरियर	-9782
▁लम	-9783
▁चौंकाने	-9784
▁महंगे	-9785
▁चैम्पियन	-9786
▁कश्मीरी	-9787
▁भयानक	-9788
▁संभाग	-9789
▁गुरुग्राम	-9790
▁सेठ	-9791
▁पेड़ों	-9792
्यां	-9793
▁महंत	-9794
जली	-9795
▁जीवा	-9796
▁कार्ट	-9797
इनरी	-9798
कुमारी	-9799
पेन	-9800
▁बहुजन	-9801
▁मांसपेश	-9802
▁पायी	-9803
▁लालच	-9804
▁तरक्की	-9805
▁बलराम	-9806
▁गिलास	-9807
▁मुन	-9808
▁खाया	-9809
ॉफ	-9810
वड़ा	-9811
▁एडमिट	-9812
▁आपूर्तिक	-9813
▁मंशा	-9814
्लो	-9815
ंटा	-9816
▁कम्युनिस्ट	-9817
▁स्वप्	-9818
▁पढ़ना	-9819
▁एमएल	-9820
▁मेष	-9821
▁योगा	-9822
▁रहीम	-9823
▁केन्द्रों	-9824
▁अर्जी	-9825
लेरिया	-9826
▁वैन	-9827
वियों	-9828
▁तबीयत	-9829
▁नेत्र	-9830
ंडन	-9831
▁नाश	-9832
▁एसओ	-9833
▁प्रोसेसर	-9834
घरों	-9835
▁स्वार्थ	-9836
्ता	-9837
ro	-9838
▁स्वाम	-9839
▁प्रभात	-9840
▁यथार्थ	-9841
▁लोहे	-9842
▁परिभाषा	-9843
ोपण	-9844
ल्हा	-9845
▁मुहूर्त	-9846
▁लंबाई	-9847
त्तों	-9848
▁मप्र	-9849
ंजलि	-9850
▁लघ	-9851
मैंने	-9852
▁कॉमेडी	-9853
▁मालिकों	-9854
▁विलियम	-9855
ंधरा	-9856
▁आज़ादी	-9857
पतियों	-9858
▁कहानियां	-9859
नें	-9860
दत्त	-9861
▁फिस	-9862
▁चिंतन	-9863
▁स्नेह	-9864
▁पहलुओं	-9865
साथी	-9866
▁लाहौर	-9867
▁धूमधाम	-9868
▁गाया	-9869
▁ग्यार	-9870
▁गांग	-9871
▁डीपी	-9872
▁सचमुच	-9873
▁नतीजों	-9874
▁ओमप्रकाश	-9875
▁कोमल	-9876
ct	-9877
▁पद्मा	-9878
▁फास्ट	-9879
▁निचे	-9880
▁ऑपरेट	-9881
यिक	-9882
▁धक्का	-9883
▁प्वाइंट	-9884
▁हैंडल	-9885
इया	-9886
▁नॉन	-9887
▁दखल	-9888
▁विमानों	-9889
▁शिक्षित	-9890
▁मानकों	-9891
▁सम्राट	-9892
▁प्रदेशों	-9893
▁चमत्कार	-9894
▁डॉक्ट	-9895
▁कार्बन	-9896
▁नवरात्रि	-9897
कार्पण	-9898
▁रोमांटिक	-9899
▁केक	-9900
▁अन्याय	-9901
▁बाइनरी	-9902
▁साप्ताहिक	-9903
▁घटकर	-9904
टकी	-9905
▁भांति	-9906
▁जमश	-9907
सिल	-9908
▁झांसी	-9909
▁दिनभर	-9910
▁आदर	-9911
▁लगेगी	-9912
▁रुका	-9913
मोह	-9914
▁पीना	-9915
▁वैष्ण	-9916
▁एयरटेल	-9917
▁यीशु	-9918
▁i	-9919
▁लर	-9920
▁अंधेरे	-9921
▁स्ट्रीट	-9922
ेदी	-9923
▁आलेख	-9924
▁ड्रा	-9925
▁संग्रहालय	-9926
▁अखा	-9927
▁झाड़	-9928
▁चुरा	-9929
▁एप्लीकेशन	-9930
▁गुरूवार	-9931
ोरेंट	-9932
▁पाटी	-9933
▁इंतज़ार	-9934
▁आशुतोष	-9935
ष्ट्रपति	-9936
▁झंडा	-9937
▁बचाओ	-9938
▁बोस	-9939
ुराम	-9940
▁होल	-9941
▁ईस्ट	-9942
▁शिवलिंग	-9943
▁चेकिंग	-9944
▁संगम	-9945
▁आनन	-9946
▁टेंडर	-9947
इंड	-9948
▁क्षमा	-9949
▁उनपर	-9950
▁जेएनयू	-9951
▁दरें	-9952
राणिक	-9953
▁मिलन	-9954
▁सिगरेट	-9955
धव	-9956
▁क्विंटल	-9957
▁फ्लिप	-9958
▁चाली	-9959
▁परेड	-9960
▁जावेद	-9961
▁असंत	-9962
▁पार्थ	-9963
▁एट	-9964
▁चीख	-9965
▁सिले	-9966
ुबली	-9967
▁अवर	-9968
▁सुग	-9969
▁क्रे	-9970
▁पप्पू	-9971
▁वरदान	-9972
▁टूल	-9973
▁निर्मला	-9974
▁लोड	-9975
हारिक	-9976
▁मर्	-9977
▁समझता	-9978
▁सच्चा	-9979
umb	-9980
▁मुहम्मद	-9981
▁राजनेता	-9982
ँद	-9983
▁समर्पण	-9984
▁हता	-9985
▁इरफान	-9986
माता	-9987
▁अलगाव	-9988
▁रिफ	-9989
▁स्पॉट	-9990
▁खुर	-9991
▁करवाना	-9992
▁टच	-9993
▁जेई	-9994
▁चिट्ठी	-9995
खाव	-9996
▁फ़िर	-9997
▁रोमांचक	-9998
▁दलील	-9999
▁लोकार्पण	-10000
▁पिताजी	-10001
▁डेस्कटॉप	-10002
▁खण्ड	-10003
▁आमने	-10004
▁चलें	-10005
▁निभाया	-10006
डीजल	-10007
कथित	-10008
▁झूठे	-10009
अपनी	-10010
▁कोशिकाओं	-10011
▁स्पिनर	-10012
▁इंजेक्शन	-10013
▁हंसी	-10014
▁सदियों	-10015
▁नैनीताल	-10016
▁गुजरा	-10017
▁विरूद्ध	-10018
▁हीरा	-10019
▁सुनीता	-10020
पों	-10021
▁गायत्री	-10022
▁बनाम	-10023
▁कांस्य	-10024
▁हिद	-10025
▁महबू	-10026
▁लेगी	-10027
▁क्रिस्ट	-10028
▁मुस्त	-10029
बिर	-10030
▁अस्थायी	-10031
▁स्कैन	-10032
▁षड	-10033
▁मजबूरी	-10034
▁टीके	-10035
कप	-10036
▁मिथुन	-10037
▁महत्त्वपूर्ण	-10038
▁इस्लामाबाद	-10039
▁आक्रामक	-10040
डेजा	-10041
▁आंगनबाड़ी	-10042
▁शांतिपूर्ण	-10043
श्योरेंस	-10044
दर्द	-10045
▁एमसी	-10046
▁अंकुश	-10047
▁बढ़ाना	-10048
िने	-10049
▁ईमानदार	-10050
रेखा	-10051
▁रहमान	-10052
▁वग	-10053
▁सईद	-10054
ाइजी	-10055
▁पार्टियां	-10056
▁कॉमन	-10057
▁जेएनएन	-10058
▁बदनाम	-10059
▁अहि	-10060
▁हेलीक	-10061
▁आईपीएस	-10062
▁पहलवान	-10063
मिंटन	-10064
▁वसुंधरा	-10065
▁रुझ	-10066
साफ	-10067
▁सस्प	-10068
▁पौराणिक	-10069
▁कोविंद	-10070
▁वकीलों	-10071
▁दय	-10072
▁गर्लफ्रेंड	-10073
▁परिणामों	-10074
▁संवाददाताओं	-10075
गर्	-10076
क्सीडेंट	-10077
्वित	-10078
▁दुरुस्त	-10079
▁इक्	-10080
▁कीर्ति	-10081
▁हड्ड	-10082
▁वर्जन	-10083
▁अरोड़ा	-10084
▁स्पा	-10085
▁मलेशिया	-10086
▁दुर्लभ	-10087
▁विशेषकर	-10088
डीयू	-10089
▁ब्रॉड	-10090
▁बाजी	-10091
▁फेस्टिवल	-10092
न्नत	-10093
▁किसने	-10094
▁जापानी	-10095
▁लटक	-10096
▁देखिये	-10097
▁कन्हैया	-10098
▁उठाई	-10099
▁स्पर्श	-10100
▁सीएचसी	-10101
▁बरतने	-10102
▁अपराधों	-10103
ण्डा	-10104
▁पटक	-10105
▁रेसि	-10106
▁उद्यान	-10107
▁प्रशिक्षित	-10108
ुए	-10109
▁रुके	-10110
▁जीना	-10111
▁साहित्यिक	-10112
खास्त	-10113
काउंट	-10114
▁विराज	-10115
ानगर	-10116
▁टाई	-10117
▁राठौर	-10118
▁बंधक	-10119
लास	-10120
दिया	-10121
▁एनर्जी	-10122
र्पण	-10123
▁प्रैक्ट	-10124
▁सर्दियों	-10125
▁डायबिटीज	-10126
▁शल	-10127
▁ट्रम्प	-10128
▁तोड़ा	-10129
▁फौज	-10130
▁मामा	-10131
▁एमए	-10132
ेश्वरी	-10133
▁उतारने	-10134
▁ग्यारह	-10135
▁इलाका	-10136
▁गांगुली	-10137
▁दस्तक	-10138
▁बयानों	-10139
र्मल	-10140
▁आंधी	-10141
िकन	-10142
उन्होंने	-10143
मेरे	-10144
िज्म	-10145
▁नियामक	-10146
िटर	-10147
▁क्रू	-10148
▁दयाल	-10149
.”	-10150
ीकृत	-10151
▁थकान	-10152
मार्क	-10153
▁बताकर	-10154
▁स्थानांतरित	-10155
.''	-10156
ज्जत	-10157
▁मुरली	-10158
▁ग्लास	-10159
▁अध्याय	-10160
जाही	-10161
▁सनातन	-10162
▁विपणन	-10163
बाप	-10164
▁क्री	-10165
▁स्का	-10166
तावास	-10167
नारायण	-10168
▁ऑस्ट्रेलियाई	-10169
▁आज्ञ	-10170
▁केबल	-10171
▁उछाल	-10172
णि	-10173
▁आति	-10174
▁परवाह	-10175
▁अनुप्र	-10176
▁वान	-10177
▁स्कॉ	-10178
▁माइक्र	-10179
▁मसीह	-10180
▁उन्नति	-10181
▁संगी	-10182
▁सीखा	-10183
▁एएन	-10184
मास	-10185
▁कॉफी	-10186
▁घेरे	-10187
▁दर्शाता	-10188
▁मर्या	-10189
▁चार्	-10190
▁वैक्सीनेशन	-10191
स्तों	-10192
▁बनवा	-10193
▁स्वादिष्ट	-10194
मिया	-10195
▁मॉल	-10196
▁बच्चो	-10197
▁कस्ट	-10198
▁ग़ज़ल	-10199
ेक्षित	-10200
कायदा	-10201
ऐप	-10202
▁मेजबान	-10203
▁मस्त	-10204
▁समझे	-10205
▁व्हाट्सएप	-10206
ओसी	-10207
अर्	-10208
▁तालमेल	-10209
▁एर	-10210
▁रोष	-10211
▁शक्तियों	-10212
▁नवरात्र	-10213
▁प्रतिभागियों	-10214
▁एंड्रॉइड	-10215
▁प्रधानाचार्य	-10216
▁बढ़ाई	-10217
▁छठे	-10218
▁जौनपुर	-10219
▁डोर	-10220
▁जमशेद	-10221
र्तन	-10222
▁खिंच	-10223
ौला	-10224
▁नौकरियों	-10225
▁भावुक	-10226
▁जंक्शन	-10227
▁जुड़ने	-10228
ंशिक	-10229
▁रथम	-10230
▁सुध	-10231
▁दूरसंचार	-10232
▁फैली	-10233
▁प्रोड्यू	-10234
▁हिदायत	-10235
▁उक	-10236
▁थानों	-10237
▁परीक्षाएं	-10238
ड़ो	-10239
▁देखरेख	-10240
खेड़ा	-10241
▁बुलाई	-10242
▁कहेंगे	-10243
▁पेटी	-10244
▁निकलता	-10245
खाना	-10246
▁कलाम	-10247
▁छिड़	-10248
▁बारात	-10249
▁लेखकों	-10250
▁स्वचाल	-10251
▁गेस्ट	-10252
▁रियो	-10253
▁मशीनों	-10254
▁कर्फ	-10255
▁हस	-10256
▁रोबोट	-10257
फिट	-10258
▁पकड़कर	-10259
▁एम्ब	-10260
ल्दी	-10261
सायनिक	-10262
▁हाश	-10263
▁दै	-10264
▁संज्ञा	-10265
किम	-10266
▁पढ़ी	-10267
▁सरोज	-10268
▁तथाकथित	-10269
▁महाप्र	-10270
▁कर्नल	-10271
ांकित	-10272
▁उत्तरप्रदेश	-10273
शियल	-10274
▁सोलर	-10275
▁उन्नाव	-10276
▁तेरी	-10277
▁उबर	-10278
न्यू	-10279
▁नवजात	-10280
▁पेरिस	-10281
िक्षा	-10282
▁लोहा	-10283
▁सप्त	-10284
▁लहरा	-10285
▁आयरन	-10286
▁मसाला	-10287
▁रैंक	-10288
▁शेखर	-10289
▁रिप	-10290
▁कमला	-10291
▁मतों	-10292
▁टैक्सी	-10293
▁कड़	-10294
▁वास्तविकता	-10295
▁बडे	-10296
▁भेजकर	-10297
▁सेक्शन	-10298
▁सोचता	-10299
कर्मा	-10300
▁प्रजापति	-10301
▁बैडमिंटन	-10302
▁फेफ	-10303
▁कार्यालयों	-10304
आईएम	-10305
▁दूतावास	-10306
▁उपमुख्यमंत्री	-10307
ल्लाह	-10308
▁आवाजाही	-10309
व्यापी	-10310
▁विजयी	-10311
उड	-10312
",	-10313
▁हिन्दुओं	-10314
▁संग्राम	-10315
▁जडेजा	-10316
▁बुलाकर	-10317
▁गम्	-10318
▁उपेक्षा	-10319
वायरस	-10320
िसा	-10321
▁सिल्वर	-10322
ोषित	-10323
म्बा	-10324
▁रोहत	-10325
▁डीलर	-10326
▁समाप्ति	-10327
घ्न	-10328
▁सुसाइड	-10329
▁साहित्यकार	-10330
्मिक	-10331
ल्श	-10332
▁बेग	-10333
▁पीली	-10334
▁इंडेक्स	-10335
▁डीआर	-10336
▁आवश्यकताओं	-10337
▁कमलेश	-10338
निर्भर	-10339
▁आयुर्वेदिक	-10340
▁कदर	-10341
दर्शिता	-10342
▁नेपाली	-10343
▁उठकर	-10344
सोस	-10345
▁सटे	-10346
▁शान्ति	-10347
▁गडकरी	-10348
▁निर्वाचित	-10349
▁रंज	-10350
▁प्या	-10351
▁क्रमांक	-10352
▁फ़ैस	-10353
▁जरूरतमंद	-10354
▁लद्दा	-10355
▁हैक	-10356
▁जीवनसाथी	-10357
▁नर्सिंग	-10358
रखाव	-10359
▁बर्खास्त	-10360
▁झुल	-10361
▁रं	-10362
▁धनबाद	-10363
उल	-10364
▁जायें	-10365
▁कृति	-10366
▁कैदियों	-10367
गेड	-10368
▁प्रेमिका	-10369
▁प्रिंसिपल	-10370
▁बेबी	-10371
▁समीर	-10372
▁पक्का	-10373
ोधी	-10374
▁सिंधु	-10375
▁सहयोगियों	-10376
▁बोनस	-10377
▁एक्सरसाइज	-10378
▁सर्वि	-10379
▁सम्बोध	-10380
▁मोक्ष	-10381
▁अरूण	-10382
▁सर्किट	-10383
▁कोले	-10384
ईटी	-10385
▁द्विपक्षीय	-10386
▁सरा	-10387
▁खरीदना	-10388
▁कास	-10389
▁चहल	-10390
▁गुजार	-10391
▁किराये	-10392
▁दीजिये	-10393
▁सूखा	-10394
▁बीबी	-10395
▁पाबंदी	-10396
▁घटक	-10397
टाला	-10398
▁पूर्वक	-10399
▁समलै	-10400
▁एमडी	-10401
▁कूल	-10402
श्र	-10403
▁रासायनिक	-10404
▁खनिज	-10405
▁उग	-10406
▁रुद्र	-10407
▁विवेकानंद	-10408
कांक	-10409
▁आज्ञा	-10410
▁मुश्किलें	-10411
▁दुरुपयोग	-10412
▁खाकर	-10413
न्दु	-10414
▁गंवा	-10415
जीसी	-10416
▁डिप्लोमा	-10417
▁बीवी	-10418
बेर	-10419
▁रिपोर्टर	-10420
▁रामनाथ	-10421
▁अनुपम	-10422
▁कब्र	-10423
▁ऑपरेटर	-10424
▁उपासना	-10425
▁यार	-10426
ोत्तरी	-10427
▁जिन्दगी	-10428
▁सतर्कता	-10429
▁पथराव	-10430
▁एसएमएस	-10431
▁प्रतिपक्ष	-10432
▁अमी	-10433
▁नीरव	-10434
▁गाजीपुर	-10435
▁जुटाने	-10436
▁डिस्काउंट	-10437
▁जजों	-10438
ोही	-10439
▁देन	-10440
▁डब	-10441
▁एप्पल	-10442
▁विश्राम	-10443
हमार	-10444
▁केके	-10445
▁प्रोफाइल	-10446
विंदर	-10447
▁शुक्रिया	-10448
▁वॉट	-10449
▁प्रोसेस	-10450
▁स्कूटर	-10451
▁तंज	-10452
▁बापू	-10453
▁आईफोन	-10454
▁उत्ते	-10455
▁ध्वस्त	-10456
▁बान	-10457
न्नाथ	-10458
▁हावी	-10459
▁फ्लू	-10460
▁महत्वा	-10461
▁नेताजी	-10462
▁डिज़ाइन	-10463
▁डकै	-10464
▁उतने	-10465
▁क्रूर	-10466
▁पुकार	-10467
▁कर्फ्यू	-10468
▁ग्रस्त	-10469
▁काठ	-10470
▁श्रो	-10471
भवन	-10472
▁पीले	-10473
गिल	-10474
▁बजरंग	-10475
जाज	-10476
शाम	-10477
▁आहत	-10478
क्कड़	-10479
▁हालिया	-10480
निटी	-10481
▁रोने	-10482
▁व्यंग्य	-10483
यंकर	-10484
▁शवों	-10485
▁शास्त्रों	-10486
▁झड़	-10487
▁नोडल	-10488
▁मठ	-10489
▁शिष्य	-10490
▁परिश्रम	-10491
▁सुचार	-10492
▁सुप्री	-10493
▁अंतराल	-10494
▁निकलकर	-10495
वर्ग	-10496
▁मण्डल	-10497
▁महापौर	-10498
▁मूंग	-10499
जनी	-10500
▁थोडा	-10501
▁भड़क	-10502
▁सूचकांक	-10503
जीवी	-10504
▁मुनि	-10505
सुर	-10506
▁सिंग	-10507
▁फ्लिपकार्ट	-10508
ेंटी	-10509
▁सम्भव	-10510
▁घुटने	-10511
▁बडी	-10512
ियाला	-10513
▁प्रास	-10514
▁वाक्य	-10515
▁ग्रैंड	-10516
▁चढ	-10517
▁क्रियान्वयन	-10518
▁चौटाला	-10519
▁असंभव	-10520
▁असमर्थ	-10521
▁तलब	-10522
▁कूड़ा	-10523
▁सफलतापूर्वक	-10524
▁उत्तराखण्ड	-10525
▁क्रॉस	-10526
▁साकार	-10527
गोपाल	-10528
▁रेज	-10529
▁टेक्स	-10530
▁सैयद	-10531
▁बनायी	-10532
▁विदाई	-10533
▁निहित	-10534
▁बोलना	-10535
▁लोकेशन	-10536
राइज	-10537
▁टाउन	-10538
▁बीबीसी	-10539
▁नट	-10540
▁प्राणी	-10541
▁थीम	-10542
▁बालू	-10543
▁नूर	-10544
फेक्शन	-10545
▁संरक्षक	-10546
▁थाई	-10547
▁अनिय	-10548
ओएस	-10549
▁प्रशास	-10550
सफाई	-10551
▁कैंड	-10552
▁बनवाने	-10553
▁चाहेंगे	-10554
एनए	-10555
▁बैक्टी	-10556
▁रीति	-10557
▁नजदीकी	-10558
▁दाखिला	-10559
फेयर	-10560
▁दमन	-10561
लु	-10562
▁बताओ	-10563
▁यस	-10564
▁रवैया	-10565
▁नमी	-10566
iv	-10567
▁मुगल	-10568
▁ट्रोल	-10569
▁सितारे	-10570
गाड़ी	-10571
▁मक्	-10572
▁राउ	-10573
▁प्रसव	-10574
▁भयंकर	-10575
▁लद्दाख	-10576
मू	-10577
शीद	-10578
▁पॉपुलर	-10579
▁शाहजहां	-10580
दानी	-10581
ाहियों	-10582
पानी	-10583
सूर	-10584
▁भां	-10585
जीर	-10586
▁टॉस	-10587
तीर्ण	-10588
▁मानद	-10589
▁प्रमाणित	-10590
न्दन	-10591
दह	-10592
▁परिणामस्वरूप	-10593
▁जानबूझ	-10594
▁विवश	-10595
▁स्ला	-10596
▁कैंपस	-10597
▁8	-10598
▁प्रोटोक	-10599
▁फोरम	-10600
ऑफ	-10601
▁निवेदन	-10602
िस्तान	-10603
▁संतुलित	-10604
▁भोले	-10605
▁ब्यूटी	-10606
▁जीडीपी	-10607
▁समेट	-10608
▁खांसी	-10609
▁बच्चियों	-10610
▁अधिकृत	-10611
ैलरी	-10612
▁टिका	-10613
▁प्रतिद्वंद	-10614
▁संयम	-10615
चेत	-10616
▁ख्	-10617
▁सच्ची	-10618
क्कत	-10619
▁कारखाने	-10620
ia	-10621
▁वरण	-10622
▁कुचल	-10623
▁साहेब	-10624
पीए	-10625
जापुर	-10626
▁पहनकर	-10627
ut	-10628
▁अल्ट	-10629
रेस्ट	-10630
▁मुकाम	-10631
▁समुचित	-10632
▁मेहर	-10633
▁रहित	-10634
▁मणिपुर	-10635
em	-10636
शंस	-10637
▁रीड	-10638
जीन	-10639
▁बादाम	-10640
▁डाइ	-10641
▁जमीनी	-10642
ांतरण	-10643
▁रहन	-10644
▁खरीदे	-10645
▁पुख्ता	-10646
▁नेगी	-10647
▁बढ़ाते	-10648
▁काफ	-10649
▁निर्णायक	-10650
काउ	-10651
▁साक्ष्य	-10652
▁आयाम	-10653
▁जेम्स	-10654
▁गूंज	-10655
▁पुरा	-10656
▁हेलीकॉप्टर	-10657
▁गद	-10658
▁रिए	-10659
▁मुस्कुरा	-10660
▁किला	-10661
डेन	-10662
▁ब्रिगेड	-10663
▁आरके	-10664
▁ट्रांसपोर्ट	-10665
▁जगन्नाथ	-10666
▁बताएंगे	-10667
ईस	-10668
चलन	-10669
▁अब्ब	-10670
▁अमेठी	-10671
▁रणनीतिक	-10672
▁यूर	-10673
▁कैम्प	-10674
ल्शियम	-10675
जेडी	-10676
▁फतेहपुर	-10677
▁आइट	-10678
▁ओवरों	-10679
▁किन्न	-10680
▁गुजरने	-10681
▁विधवा	-10682
▁रोट	-10683
▁आइडिया	-10684
ंगली	-10685
▁विलय	-10686
लोरी	-10687
होत्रा	-10688
▁फटकार	-10689
▁सुप्रीमो	-10690
▁सत्तारूढ़	-10691
▁बिजन	-10692
▁अख़	-10693
▁प्रयत्न	-10694
▁खुदरा	-10695
▁प्रतिबद्धता	-10696
लाइंस	-10697
▁औस	-10698
▁प्लानिंग	-10699
▁मंथन	-10700
▁लगेंगे	-10701
▁मायके	-10702
▁हर्	-10703
▁लाते	-10704
▁व्यर्थ	-10705
▁प्रतिनिधिमंडल	-10706
▁पंक्ति	-10707
▁इकल	-10708
ेंसिंग	-10709
▁विश्वकर्मा	-10710
▁सवर्ण	-10711
▁आश्वस्त	-10712
▁रूचि	-10713
▁एप्लिकेशन	-10714
लेटर	-10715
ra	-10716
▁महर्षि	-10717
▁अध्यापकों	-10718
ब्ब	-10719
▁वेश	-10720
▁जाधव	-10721
▁विभाजित	-10722
▁पीयूष	-10723
▁संबद्ध	-10724
▁जंगली	-10725
▁समितियों	-10726
दित	-10727
हाना	-10728
▁उपनि	-10729
▁कराये	-10730
ंबेडकर	-10731
▁देखती	-10732
ाहिर	-10733
▁शायरी	-10734
▁व्यवसायी	-10735
▁पिन	-10736
▁लुट	-10737
▁बाड़	-10738
▁गयीं	-10739
▁भुला	-10740
▁दीवाली	-10741
▁ड्रग्स	-10742
▁दिखाना	-10743
▁शहीदों	-10744
▁आईएम	-10745
▁छोर	-10746
▁उसपर	-10747
▁गतिविधियां	-10748
प्रधान	-10749
बेस	-10750
▁सितारों	-10751
▁कुल्लू	-10752
▁प्लेस	-10753
▁मोटे	-10754
▁झंडी	-10755
▁पावन	-10756
▁व्यावहारिक	-10757
▁बंसल	-10758
▁मानती	-10759
▁इंश्योरेंस	-10760
▁अमाव	-10761
▁रप	-10762
▁बीएसएफ	-10763
▁काे	-10764
▁हड्डी	-10765
▁गम्भीर	-10766
▁झुक	-10767
▁प्रसन्नता	-10768
▁यूँ	-10769
▁खौफ	-10770
▁करिश	-10771
▁पुरे	-10772
क़े	-10773
▁इने	-10774
▁अभिभावक	-10775
▁स्वचालित	-10776
▁आपत्तिजनक	-10777
▁इकाइयों	-10778
वाग	-10779
▁मालिश	-10780
▁भया	-10781
▁दशहरा	-10782
▁घोर	-10783
▁दिलों	-10784
▁मनमानी	-10785
▁चतुर्थी	-10786
िं	-10787
▁रमण	-10788
▁बीएच	-10789
णवी	-10790
▁दत्ता	-10791
▁महिमा	-10792
▁संभल	-10793
’।	-10794
▁परिवेश	-10795
▁इन्टर	-10796
मुक	-10797
▁आयुष	-10798
▁नवाब	-10799
▁चलाना	-10800
▁आवेदक	-10801
धु	-10802
▁वापिस	-10803
▁प्रशंसकों	-10804
▁ग्रेटर	-10805
▁डिफेंस	-10806
▁ढांचा	-10807
▁st	-10808
हिट	-10809
▁विंडो	-10810
▁खाएं	-10811
▁लगाम	-10812
▁पिस्टल	-10813
▁बदली	-10814
▁मंदी	-10815
▁हॉस्टल	-10816
▁बूंद	-10817
▁रेस्टोरेंट	-10818
▁यूए	-10819
▁आँखें	-10820
▁सराय	-10821
▁रविशंकर	-10822
▁आवश	-10823
▁लड़े	-10824
▁ख़राब	-10825
▁क्रिसमस	-10826
किया	-10827
निष्ठ	-10828
▁धनु	-10829
▁सोते	-10830
▁अब्बास	-10831
ल्हे	-10832
किस	-10833
इसके	-10834
▁ड्रोन	-10835
▁तड़के	-10836
हाली	-10837
▁म्यां	-10838
नाग	-10839
बाही	-10840
▁अर्धशतक	-10841
▁एसडीओ	-10842
▁उपयोगकर्ताओं	-10843
▁उल्टा	-10844
जोत	-10845
▁उगा	-10846
▁यादगार	-10847
▁आख़	-10848
▁सशस्त्र	-10849
▁घटाने	-10850
▁प्रतियोगी	-10851
▁200	-10852
▁तेरा	-10853
▁जमशेदपुर	-10854
▁क्रय	-10855
▁आइटम	-10856
▁सीएन	-10857
▁क्रांतिकारी	-10858
▁सुंदरता	-10859
▁लुध	-10860
▁तात्	-10861
▁निराकरण	-10862
▁पराजित	-10863
ितु	-10864
प्रताप	-10865
ँसी	-10866
▁श्वेता	-10867
्यर	-10868
▁आजमगढ़	-10869
▁विज्ञप्ति	-10870
िंगर	-10871
पस	-10872
▁कैल्शियम	-10873
▁बेचा	-10874
▁पीएन	-10875
ओल	-10876
संत	-10877
▁मारुति	-10878
▁ड्राइविंग	-10879
बड़ा	-10880
▁बदलना	-10881
▁बारीक	-10882
दृश्य	-10883
▁चिकन	-10884
▁संभावनाएं	-10885
गार्ड	-10886
▁गिराया	-10887
▁फिक्स	-10888
देय	-10889
▁अविश्वास	-10890
▁गरिमा	-10891
▁धड़क	-10892
▁सकल	-10893
▁पुस्तकों	-10894
ज़े	-10895
▁स्क्	-10896
▁दर्दनाक	-10897
▁मधेश	-10898
▁जव	-10899
▁अड़	-10900
▁लोहिया	-10901
ाव	-10902
▁बांटने	-10903
▁कीं	-10904
▁बखूबी	-10905
फन	-10906
▁परंपरागत	-10907
▁औसतन	-10908
बाज़	-10909
▁भर्	-10910
▁हाईस्कूल	-10911
्यून	-10912
यरी	-10913
▁मशक्कत	-10914
▁पिक्	-10915
▁डीआई	-10916
▁प्रवास	-10917
▁खदान	-10918
▁पेड	-10919
▁हाइवे	-10920
▁उत्पत्ति	-10921
गुना	-10922
▁घोड़े	-10923
▁अवसरों	-10924
▁नगरपालिका	-10925
▁मूर्ख	-10926
▁आंत	-10927
▁ईसा	-10928
▁काज	-10929
▁नकार	-10930
प्रथम	-10931
▁ज़ोर	-10932
▁नामजद	-10933
▁अमरनाथ	-10934
▁स्वप्न	-10935
फना	-10936
▁खेम	-10937
▁दंगों	-10938
ब्ध	-10939
▁वसा	-10940
एनएल	-10941
प्रेशन	-10942
मुखी	-10943
▁उपलब्धियों	-10944
▁ः	-10945
▁अनुपालन	-10946
▁सुलझाने	-10947
न्म	-10948
▁जोड़ों	-10949
डमी	-10950
चाने	-10951
▁इस्तीफे	-10952
िकेश	-10953
ब्लू	-10954
िक्रमा	-10955
▁मुस्कान	-10956
▁पीपल	-10957
प्रो	-10958
▁उड़ी	-10959
▁कर्क	-10960
▁बीडीओ	-10961
▁पनीर	-10962
▁दिवंगत	-10963
बत्ती	-10964
▁आत्मनिर्भर	-10965
▁पों	-10966
▁चक्रवर्ती	-10967
▁देहात	-10968
▁अंग्रेज़ी	-10969
▁नजारा	-10970
ध्यापक	-10971
▁”	-10972
इये	-10973
▁दांतों	-10974
▁विश्वनाथ	-10975
बाब	-10976
▁प्रगतिशील	-10977
▁हक़	-10978
▁छाती	-10979
▁उत्तीर्ण	-10980
मोल	-10981
▁फैले	-10982
▁अपितु	-10983
▁सर्वर	-10984
हरों	-10985
▁देवगन	-10986
▁रल	-10987
ूलाल	-10988
परिवार	-10989
▁पॉवर	-10990
▁रेसिपी	-10991
▁स्थाई	-10992
▁पॉली	-10993
▁जया	-10994
▁नाई	-10995
▁रिमांड	-10996
▁चाहा	-10997
▁लिफ्ट	-10998
▁समकक्ष	-10999
▁खुदाई	-11000
▁इंचार्ज	-11001
▁घृ	-11002
▁फ्रेम	-11003
▁बेहोश	-11004
▁खुलासे	-11005
▁बीमारियां	-11006
▁एनजीओ	-11007
▁टकराव	-11008
▁पीरिय	-11009
▁चुपचाप	-11010
▁विकेटकीपर	-11011
▁दवाएं	-11012
▁ट्राई	-11013
▁संगठित	-11014
▁पैकेट	-11015
▁आपातकाल	-11016
चन्द्र	-11017
▁निवेशक	-11018
भंगा	-11019
्रार	-11020
▁डेवलपमेंट	-11021
▁घोल	-11022
▁लिट	-11023
▁बायो	-11024
▁समीकरण	-11025
यूवी	-11026
▁अभिनव	-11027
▁चिन्हित	-11028
▁मुक़	-11029
▁चौड़ा	-11030
▁स्थिरता	-11031
मानस	-11032
▁तुला	-11033
▁अलवर	-11034
ॉफ्ट	-11035
दक	-11036
▁जयर	-11037
▁दीवारों	-11038
▁दहन	-11039
▁कारावास	-11040
▁ऊंचा	-11041
मराह	-11042
▁कैदी	-11043
▁प्रमाणपत्र	-11044
कुशी	-11045
भाषित	-11046
▁नाला	-11047
▁तबाही	-11048
▁जॉर्ज	-11049
▁त्रुट	-11050
▁छुड़ा	-11051
▁सर्जन	-11052
▁छिल	-11053
▁आगाज	-11054
▁अकाली	-11055
रोल	-11056
विड़	-11057
ॉरिटी	-11058
▁शिवाजी	-11059
ामित्र	-11060
▁बंगला	-11061
▁कंस	-11062
▁पौधा	-11063
▁एन्	-11064
हु	-11065
▁घटन	-11066
गिर	-11067
बाह	-11068
शाद	-11069
▁खाड़ी	-11070
▁निर्दोष	-11071
ार्द	-11072
▁तत्पर	-11073
▁फोटोग्राफी	-11074
▁कमरा	-11075
▁कश	-11076
तेरस	-11077
▁मल्होत्रा	-11078
▁उधार	-11079
▁पायदान	-11080
मिल	-11081
▁एकीकृत	-11082
▁एनसीआर	-11083
▁रध	-11084
▁महेन्द्र	-11085
क़ी	-11086
ैना	-11087
▁दाऊ	-11088
▁मांझी	-11089
ेंग	-11090
▁संविदा	-11091
बरेली	-11092
▁सड़कें	-11093
▁छोड़ना	-11094
▁आंबेडकर	-11095
▁प्रहार	-11096
▁प्रातः	-11097
▁मर्यादा	-11098
▁हार्म	-11099
प्रसाद	-11100
▁म्यांमार	-11101
ौप	-11102
▁गंध	-11103
▁जालंधर	-11104
▁अग्न	-11105
▁जबक	-11106
राहट	-11107
▁शुमार	-11108
▁महाराजा	-11109
वैज्ञान	-11110
▁सतत	-11111
▁संभाला	-11112
▁टार	-11113
▁मुं	-11114
▁तिरंगा	-11115
▁रक्तदान	-11116
▁मुस्लिमों	-11117
भावस्था	-11118
▁उपग्रह	-11119
कार्य	-11120
▁तिरु	-11121
▁व्यवस्थित	-11122
▁चत	-11123
ुल्लाह	-11124
▁शर्मनाक	-11125
▁वृष	-11126
विता	-11127
▁चादर	-11128
खारी	-11129
चर्या	-11130
▁ग्राफ	-11131
ोब	-11132
▁सीमेंट	-11133
▁जलस्तर	-11134
▁अनियंत्रित	-11135
▁पैरा	-11136
▁कैलोरी	-11137
▁औरतों	-11138
▁छोड़ी	-11139
▁ढी	-11140
▁कैलेंडर	-11141
▁यूनाइटेड	-11142
▁परिक्रमा	-11143
किर	-11144
▁दिखाता	-11145
▁बलिया	-11146
▁मनाते	-11147
▁मैर	-11148
▁चट्ट	-11149
▁तोड़फोड़	-11150
टरिंग	-11151
▁जन्मा	-11152
▁नौजवान	-11153
▁रहो	-11154
▁पितृ	-11155
▁महिंद्रा	-11156
▁बौद्धिक	-11157
बन्धी	-11158
▁इलेवन	-11159
▁आंव	-11160
वाहक	-11161
▁महम	-11162
र्निंग	-11163
अंदाज	-11164
आधारी	-11165
विदेश	-11166
▁करोड	-11167
▁मवेश	-11168
▁उपराष्ट्रपति	-11169
▁मुबार	-11170
▁दरो	-11171
ंद्रह	-11172
शासन	-11173
▁सिं	-11174
्तल	-11175
▁पत्तों	-11176
▁समुदायों	-11177
▁शायर	-11178
▁राक्ष	-11179
▁अरुणाचल	-11180
▁आसाराम	-11181
▁डॉन	-11182
▁आमजन	-11183
▁डेयरी	-11184
▁सहवाग	-11185
ॉयलेट	-11186
▁वैवाहिक	-11187
लाने	-11188
स्ति	-11189
▁एशियन	-11190
▁रवींद्र	-11191
▁रंगीन	-11192
▁पीएस	-11193
▁सिग्नल	-11194
▁प्रावधानों	-11195
▁रचनाओं	-11196
▁बुजुर्गों	-11197
▁फेमस	-11198
▁रोकना	-11199
▁फोटोज	-11200
▁महाजन	-11201
▁जानकारों	-11202
द्धान	-11203
▁घाटा	-11204
▁निबंध	-11205
▁शिल्प	-11206
▁प्रोडक्ट्स	-11207
▁मूव	-11208
▁अराज	-11209
▁आटा	-11210
▁अवशेष	-11211
▁पते	-11212
▁स्टार्स	-11213
▁डीए	-11214
▁चंदा	-11215
▁नाजुक	-11216
पाक	-11217
▁सलीम	-11218
▁गर्भावस्था	-11219
id	-11220
▁द्विआधारी	-11221
▁सैनिट	-11222
▁बुमराह	-11223
▁अमावस्या	-11224
▁कत्	-11225
▁लाभार्थियों	-11226
▁आंच	-11227
▁ढ़	-11228
सिटी	-11229
▁पक्षियों	-11230
▁हरण	-11231
▁दसवीं	-11232
▁संन्यास	-11233
▁कठिनाई	-11234
▁रेख	-11235
▁निष्ठा	-11236
‘‘	-11237
▁अनाव	-11238
▁गुलाबी	-11239
▁शिवपुरी	-11240
▁खिलौ	-11241
▁ज्वा	-11242
्लाई	-11243
रां	-11244
▁मत्	-11245
▁पढ़ाने	-11246
▁युगल	-11247
▁श्रवण	-11248
▁इमो	-11249
▁लगन	-11250
▁अकेली	-11251
कांक्षी	-11252
▁कराएं	-11253
स्वा	-11254
▁अभद्र	-11255
▁विंग	-11256
धारकों	-11257
▁कसा	-11258
▁मैग्	-11259
▁झंडे	-11260
▁इरादा	-11261
▁स्तंभ	-11262
ब्लम	-11263
▁चलाकर	-11264
ौजी	-11265
निवास	-11266
▁नवनि	-11267
गीत	-11268
▁कीमती	-11269
▁तीव्रता	-11270
▁शोधकर्ताओं	-11271
▁माई	-11272
▁समाजसेवी	-11273
तरफा	-11274
▁टायर	-11275
▁पहाड़ों	-11276
▁प्लेयर	-11277
▁अनवर	-11278
▁गणपति	-11279
▁बर्थडे	-11280
ोटो	-11281
▁ह्यू	-11282
▁पंचायती	-11283
िहार	-11284
▁मसलन	-11285
▁धनतेरस	-11286
▁जिया	-11287
▁भावनात्मक	-11288
▁अशुभ	-11289
▁अंगों	-11290
▁ह्र	-11291
▁लप	-11292
मीत	-11293
▁धुन	-11294
▁डेमोक	-11295
▁ट्रेनें	-11296
▁माली	-11297
▁टास्क	-11298
▁तत्वावधान	-11299
▁घटी	-11300
▁प्रां	-11301
▁निवासियों	-11302
▁रेग	-11303
▁इन्फ	-11304
हट	-11305
▁दावेदार	-11306
ष्ठान	-11307
▁तैर	-11308
▁पुस्तकाल	-11309
ोदिया	-11310
▁माधव	-11311
▁वैसी	-11312
▁चौबे	-11313
▁स्वे	-11314
▁वर्चुअल	-11315
रीज़	-11316
▁अखंड	-11317
जरत	-11318
त्रिम	-11319
▁कुत्तों	-11320
▁डालर	-11321
▁कुश्ती	-11322
▁मीट	-11323
▁मुफ्	-11324
ैरह	-11325
▁सिद्धांतों	-11326
▁भिज	-11327
▁आड़	-11328
▁केन	-11329
हारा	-11330
▁जेन	-11331
▁करवाए	-11332
▁चीज़ों	-11333
▁मलेरिया	-11334
▁ताइ	-11335
▁निकलना	-11336
▁जयराम	-11337
▁तरल	-11338
▁महासंघ	-11339
वांस	-11340
▁गाड़ियां	-11341
वैसी	-11342
▁छात्रावास	-11343
▁गवर्न	-11344
▁रिक्शा	-11345
▁नॉर्थ	-11346
▁उड	-11347
▁ऊंचे	-11348
▁बाली	-11349
▁उत्पादक	-11350
▁हाजिर	-11351
वेन्द्र	-11352
▁कैंट	-11353
▁हिना	-11354
▁विद्वानों	-11355
चारे	-11356
▁ख़ान	-11357
ंदना	-11358
▁ग्रन्थ	-11359
▁परफॉ	-11360
▁संयोजन	-11361
▁इराक	-11362
▁आजीवन	-11363
▁यूथ	-11364
▁मीर	-11365
▁बरी	-11366
▁क्यूंकि	-11367
▁शर्ट	-11368
▁वालो	-11369
विनी	-11370
मिक	-11371
▁लुधियाना	-11372
▁पाटिल	-11373
कारिता	-11374
▁बकरी	-11375
▁बाएं	-11376
▁योद्धा	-11377
ुस	-11378
▁धरो	-11379
▁लीडर	-11380
किशोर	-11381
▁बिठा	-11382
▁साधते	-11383
▁रोहतक	-11384
▁इज्जत	-11385
▁चित्रकूट	-11386
▁ट्रीट	-11387
इं	-11388
कार्ड	-11389
▁पंजीयन	-11390
▁बीजिंग	-11391
▁दरोगा	-11392
▁सिक्के	-11393
▁9	-11394
▁होट	-11395
खिल	-11396
▁दरभंगा	-11397
▁गिरे	-11398
▁जीरो	-11399
▁स्क्रिप्ट	-11400
▁बेगम	-11401
▁सज्	-11402
▁ठंडे	-11403
▁जिद	-11404
▁रवै	-11405
▁राजदूत	-11406
ैच	-11407
▁जनवर	-11408
ौरन	-11409
▁हटाकर	-11410
▁जोगी	-11411
▁कच्चा	-11412
▁आबकारी	-11413
▁क़ानून	-11414
▁मौतों	-11415
▁तपस्या	-11416
स्टन	-11417
चढ़ा	-11418
▁कपल	-11419
ढ़ियों	-11420
▁मसू	-11421
▁सम्बन्धी	-11422
िनेशन	-11423
काउंटर	-11424
▁कौशिक	-11425
छोटी	-11426
आरएस	-11427
▁जैव	-11428
▁निफ्टी	-11429
▁एसआईटी	-11430
▁खासियत	-11431
▁विर	-11432
▁मुल्क	-11433
▁संगीतकार	-11434
▁रोमांस	-11435
▁बर्फबारी	-11436
▁पंक्त	-11437
▁रैना	-11438
▁जातीय	-11439
▁इन्वेस्ट	-11440
▁लग्न	-11441
▁दिखते	-11442
▁भद	-11443
▁कहलाता	-11444
ेगा	-11445
▁इश्	-11446
▁ऐप्स	-11447
▁केसर	-11448
▁रिहाई	-11449
▁विराम	-11450
▁मित्तल	-11451
माना	-11452
▁रहाणे	-11453
▁अंचल	-11454
▁ख्वा	-11455
▁डालना	-11456
▁भविष्यवाणी	-11457
▁डिस	-11458
▁नरम	-11459
▁सीडी	-11460
▁विरोधियों	-11461
▁एमएम	-11462
यर्स	-11463
▁घुसकर	-11464
▁उब	-11465
▁सिद्दी	-11466
ul	-11467
लें	-11468
ग्रेड	-11469
▁कतई	-11470
▁फिन	-11471
▁सैर	-11472
खोर	-11473
▁कैप्	-11474
वटी	-11475
▁टुडे	-11476
वामा	-11477
▁विसर्जन	-11478
▁पंद्रह	-11479
▁पैसेंजर	-11480
▁पूर्वानु	-11481
▁बागी	-11482
▁परह	-11483
ंछ	-11484
▁औऱ	-11485
ार्पण	-11486
▁उद्धव	-11487
▁सीम	-11488
▁कक	-11489
▁षय	-11490
▁पश्चात्	-11491
▁स्नैप	-11492
िएटर	-11493
▁गन्ने	-11494
▁छप	-11495
ंजय	-11496
ैशी	-11497
पर्स	-11498
▁स्टेप	-11499
▁गड्ढे	-11500
▁विक्रेता	-11501
▁बढा	-11502
▁लॉस	-11503
▁स्नात	-11504
▁पात्रता	-11505
▁कोशिशों	-11506
▁षत	-11507
ॉल्ट	-11508
▁तुझे	-11509
▁बंदरगाह	-11510
▁रूक	-11511
्यव	-11512
os	-11513
▁बढ़ोत्तरी	-11514
▁इंस	-11515
प्रेम	-11516
ायर्ड	-11517
▁पसीना	-11518
▁पीते	-11519
▁अवलोक	-11520
▁आंशिक	-11521
▁घण	-11522
प्ला	-11523
▁गिरकर	-11524
▁भंस	-11525
▁नमन	-11526
ायूं	-11527
▁सजग	-11528
नीज	-11529
हरि	-11530
शो	-11531
▁दुखद	-11532
▁संभावनाओं	-11533
्टन	-11534
▁टम	-11535
▁दीनदयाल	-11536
▁लिय	-11537
▁सक्रियता	-11538
▁कछ	-11539
वीजन	-11540
▁रस्सी	-11541
बाय	-11542
िताओं	-11543
ताव	-11544
▁डाक्टरों	-11545
▁घाटे	-11546
▁काबिल	-11547
▁लकी	-11548
▁आदम	-11549
नीति	-11550
▁खुदकुशी	-11551
▁स्क्रीनिंग	-11552
▁काटा	-11553
िंट	-11554
▁भयावह	-11555
टीय	-11556
▁तेलु	-11557
क्षिप्त	-11558
▁नशी	-11559
▁मीठा	-11560
▁लश्	-11561
▁घरवालों	-11562
ज़रत	-11563
लोगों	-11564
विधान	-11565
नक	-11566
▁बाते	-11567
▁चेतन	-11568
▁कचरे	-11569
▁योगेश	-11570
▁एग्री	-11571
▁बेल्ट	-11572
▁प्रतिवर्ष	-11573
▁इंटेल	-11574
पाकिस्तान	-11575
▁संब	-11576
ोरिया	-11577
▁वकाल	-11578
▁अलै	-11579
▁सुधा	-11580
▁पर्यवे	-11581
▁चूह	-11582
▁नरस	-11583
▁पटियाला	-11584
▁रविंद्र	-11585
▁करायी	-11586
▁पटाखे	-11587
▁ऋषभ	-11588
▁पन्ना	-11589
▁मैग	-11590
▁उम्मीदें	-11591
▁पारदर्शिता	-11592
हराम	-11593
गिरी	-11594
▁निदान	-11595
▁मूलभूत	-11596
ट्	-11597
ेट्स	-11598
▁जीप	-11599
▁बख्	-11600
▁डेली	-11601
▁आरटीआई	-11602
▁जातकों	-11603
सेफ	-11604
▁ठेका	-11605
▁दुष्प्र	-11606
▁आक्रोशित	-11607
▁एसटीएफ	-11608
▁होस्ट	-11609
वकों	-11610
खलन	-11611
▁प्रोफेशनल	-11612
▁अकसर	-11613
धू	-11614
▁धनी	-11615
▁दरि	-11616
▁चॉक	-11617
त्स	-11618
▁बैक्टीरिया	-11619
ष्टिक	-11620
▁अनार	-11621
रेपी	-11622
▁पॉइंट	-11623
▁बसंत	-11624
▁जोग	-11625
वोकेट	-11626
श्याम	-11627
▁लखी	-11628
▁विकलांग	-11629
▁निभ	-11630
▁आदेशों	-11631
▁कारी	-11632
▁भंसाली	-11633
▁ढक	-11634
▁उच्चारण	-11635
▁विमल	-11636
▁उत्थान	-11637
▁एकाउंट	-11638
सौर	-11639
लेक्सी	-11640
▁रजनीकांत	-11641
▁टीबी	-11642
फू	-11643
▁तबादला	-11644
▁परस्पर	-11645
▁रिलेशनशिप	-11646
पाठ	-11647
ान्य	-11648
▁करंट	-11649
▁रुकने	-11650
▁इसमे	-11651
▁कोठ	-11652
▁बाहुबली	-11653
▁दमकल	-11654
शक	-11655
दिल्ली	-11656
▁बैलेंस	-11657
▁देशवासियों	-11658
▁अनजान	-11659
▁मांसपेशियों	-11660
▁कृत्रिम	-11661
ot	-11662
ड़कर	-11663
स्टाइल	-11664
▁हीं	-11665
▁अपनों	-11666
▁जिम्मा	-11667
▁रुझान	-11668
▁सुपरहिट	-11669
मोरी	-11670
ोनिया	-11671
▁माधुरी	-11672
ब्बा	-11673
निरपेक्ष	-11674
काशी	-11675
ज़ोर	-11676
▁साँ	-11677
ुर्र	-11678
▁अस्वी	-11679
▁स्वामित्व	-11680
▁इजरायल	-11681
▁शंख	-11682
▁रचा	-11683
▁फहरा	-11684
▁भत्ता	-11685
खला	-11686
▁अध्यादेश	-11687
▁माउंट	-11688
मेरी	-11689
▁पूर्वानुमान	-11690
▁पुरोहित	-11691
षाद	-11692
ैत	-11693
ंपल	-11694
डऩे	-11695
▁एएसपी	-11696
▁लड़ाकू	-11697
▁अनुमो	-11698
▁हिसार	-11699
▁अनुभवों	-11700
▁बैंगल	-11701
▁यप	-11702
▁मंस	-11703
्यूमेंट	-11704
▁ओवैसी	-11705
▁इनेलो	-11706
िरे	-11707
▁नजरअंदाज	-11708
▁पड़ाव	-11709
▁राशिद	-11710
▁परिभाषित	-11711
▁रंजीत	-11712
▁जर्जर	-11713
▁परिदृश्य	-11714
स्तीन	-11715
▁अगस	-11716
▁गानों	-11717
▁हवन	-11718
अनु	-11719
▁झगड़े	-11720
▁व्यतीत	-11721
▁सब्जियां	-11722
▁खोलकर	-11723
▁माइकल	-11724
▁पाट	-11725
▁जेडीयू	-11726
▁वैचारिक	-11727
थरूम	-11728
▁सगाई	-11729
▁वकालत	-11730
▁झूठी	-11731
पश्चिम	-11732
▁बंटवारे	-11733
▁""	-11734
▁केले	-11735
नई	-11736
▁सराहनीय	-11737
▁ऐत	-11738
▁चौराहा	-11739
▁पैं	-11740
षकों	-11741
▁मनुष्यों	-11742
ंटू	-11743
▁पढाई	-11744
▁माथे	-11745
▁लक्षणों	-11746
▁लां	-11747
प्टर	-11748
▁पुलवामा	-11749
▁समावेश	-11750
▁संजी	-11751
▁डूबने	-11752
▁अहंकार	-11753
▁शॉ	-11754
▁नबी	-11755
▁अपार	-11756
▁फ्ले	-11757
फै	-11758
▁आउ	-11759
▁सेशन	-11760
▁मार्गों	-11761
▁अबू	-11762
▁अनावश्यक	-11763
क्ष्मी	-11764
▁रिटेल	-11765
भक्त	-11766
▁नित्य	-11767
▁कंक	-11768
सरण	-11769
▁इम्	-11770
रथ	-11771
▁15	-11772
▁मल्ल	-11773
▁अमरिंदर	-11774
▁एलो	-11775
▁हिंदुत्व	-11776
▁12	-11777
▁बदलती	-11778
▁चाहत	-11779
▁पतन	-11780
त्सव	-11781
▁प्रोटोकॉल	-11782
ान्तर	-11783
▁यशवंत	-11784
▁चो	-11785
डिय़ों	-11786
▁अनुप्रयोग	-11787
▁शीतल	-11788
▁हज़रत	-11789
▁मुफ्ती	-11790
▁हुड्डा	-11791
▁प्रतिकूल	-11792
▁चुनि	-11793
▁अम्बेडकर	-11794
चिंग	-11795
▁परख	-11796
न्त्री	-11797
चिक	-11798
▁मिश्रित	-11799
वर्स	-11800
▁खिस	-11801
▁ज्वाइन	-11802
▁गाव	-11803
प्लेक्स	-11804
▁मुम	-11805
▁इरादे	-11806
▁आकांक्षा	-11807
णाल	-11808
▁लेटर	-11809
▁नमूना	-11810
उधर	-11811
▁मैट	-11812
▁ऋतिक	-11813
जोड़	-11814
▁कंटेस्ट	-11815
▁जमु	-11816
▁सर्विसेज	-11817
वाड़े	-11818
षे	-11819
▁सुधर	-11820
▁सिखाया	-11821
▁पूल	-11822
▁अर्थशास्त्र	-11823
▁धोने	-11824
▁सरे	-11825
▁बरती	-11826
▁साध्वी	-11827
▁हास्य	-11828
▁निभाते	-11829
सामने	-11830
▁ar	-11831
▁राइड	-11832
▁प्रेग्न	-11833
▁ईश	-11834
▁इकबाल	-11835
▁सजाया	-11836
ोशी	-11837
िस्टर	-11838
▁अवलोकन	-11839
▁काजल	-11840
जीविका	-11841
▁लोकपाल	-11842
▁उर्जा	-11843
▁खुशबू	-11844
▁दूँ	-11845
▁स्टेटस	-11846
▁संक्षिप्त	-11847
कांग्रेस	-11848
▁भंडारण	-11849
▁मुबारक	-11850
धुनिक	-11851
राष्ट्र	-11852
▁कसर	-11853
▁कोटे	-11854
▁नगरीय	-11855
▁रखरखाव	-11856
▁बढ़ना	-11857
▁मुताबिक़	-11858
▁सेरे	-11859
नोई	-11860
्मीकि	-11861
▁शंक	-11862
▁हवै	-11863
▁देशभक्ति	-11864
▁दिक्कतों	-11865
▁सर्वप्रथम	-11866
▁टारगेट	-11867
▁पुस्तकें	-11868
▁बुलाने	-11869
लाज	-11870
इश	-11871
▁दिश	-11872
▁वारंट	-11873
▁माइक	-11874
▁जीआरपी	-11875
▁डिटेल	-11876
▁देंगी	-11877
▁बाथरूम	-11878
सेवा	-11879
▁पाएगी	-11880
▁एनकाउंटर	-11881
टेगरी	-11882
▁वसंत	-11883
▁डायरी	-11884
▁एग	-11885
▁वायदा	-11886
▁ययन	-11887
▁एडवोकेट	-11888
▁लब	-11889
▁फाइनेंस	-11890
▁वैभव	-11891
▁सर्जिकल	-11892
▁वु	-11893
▁करक	-11894
▁बिष्ट	-11895
▁रोमन	-11896
▁लखीमपुर	-11897
▁गोग	-11898
फोर्स	-11899
▁भैंस	-11900
▁एे	-11901
▁मसाले	-11902
▁बांदा	-11903
ोल्ट	-11904
▁कैर	-11905
▁सज़ा	-11906
▁संतों	-11907
▁दावों	-11908
प्रद	-11909
▁चां	-11910
वीपी	-11911
▁खंग	-11912
न्होने	-11913
▁ब्लास्ट	-11914
▁अभिले	-11915
▁माओवादी	-11916
ाहे	-11917
▁प्रायः	-11918
▁संगत	-11919
▁किसके	-11920
▁रैल	-11921
▁ताजमहल	-11922
ॉइन	-11923
ोवा	-11924
पांच	-11925
▁देओल	-11926
बाबू	-11927
▁ग्रोथ	-11928
▁महबूबा	-11929
▁उल्टी	-11930
▁पेंटिंग	-11931
▁नीलम	-11932
चड़	-11933
▁ट्यूट	-11934
▁बहने	-11935
▁निखार	-11936
▁दुबारा	-11937
▁निर्व	-11938
▁आरजेडी	-11939
▁पीडि़त	-11940
▁वहा	-11941
▁तेज़ी	-11942
ेरों	-11943
▁हांग	-11944
▁टीएमसी	-11945
▁लॉग	-11946
▁कुरैशी	-11947
▁वर्च	-11948
▁पदोन्नति	-11949
▁निर्भ	-11950
▁मधे	-11951
▁पुतला	-11952
▁हजारे	-11953
▁सीखना	-11954
▁विनम्र	-11955
▁मृतका	-11956
▁स्ट्रीम	-11957
▁अड्डा	-11958
टेनमेंट	-11959
▁चंद्रा	-11960
ेटेड	-11961
▁रायबरेली	-11962
▁निस	-11963
▁अफ्रीकी	-11964
▁नहाने	-11965
▁डेल	-11966
▁दबाने	-11967
▁गोबर	-11968
▁बंगाली	-11969
▁वर्दी	-11970
▁अंततः	-11971
▁जलाकर	-11972
▁उपलब	-11973
बदल	-11974
▁सुनना	-11975
▁नैन	-11976
▁उपदेश	-11977
▁ड्रामा	-11978
▁पीटीआई	-11979
▁सेलिब्र	-11980
▁स्वर्	-11981
▁बहाली	-11982
▁डरा	-11983
▁लगवाने	-11984
▁नाह	-11985
वैज्ञानिक	-11986
▁मट	-11987
▁नाली	-11988
ृता	-11989
उंडर	-11990
▁किचन	-11991
▁संधि	-11992
बाला	-11993
हादत	-11994
▁लश्कर	-11995
गंगा	-11996
रक्षा	-11997
▁गिना	-11998
▁टूटी	-11999
▁स्पष्टीकरण	-12000
▁पक्की	-12001
▁श्रीकांत	-12002
पोल	-12003
▁लगाव	-12004
▁जिज्ञ	-12005
▁बहाना	-12006
▁चुनें	-12007
▁अंतरिम	-12008
▁ड्राई	-12009
▁प्रणब	-12010
▁कवियों	-12011
▁आधुन	-12012
पटा	-12013
▁ऑपरेटिंग	-12014
▁उकसा	-12015
▁पहुँचे	-12016
▁ब्रोकर	-12017
▁हैस	-12018
हांत	-12019
▁एसयूवी	-12020
मनी	-12021
▁ऑफिशियल	-12022
▁हुनर	-12023
▁हमको	-12024
▁मार्ट	-12025
▁मिस्र	-12026
▁प्रसं	-12027
▁निकलती	-12028
▁सम्भावना	-12029
▁पतंजलि	-12030
▁रूपों	-12031
ht	-12032
ैय	-12033
माई	-12034
▁डैम	-12035
बम	-12036
▁गायन	-12037
▁मक्का	-12038
▁लपेट	-12039
▁अनुचित	-12040
▁ओला	-12041
▁काॅ	-12042
राइट	-12043
▁कब्ज	-12044
लल	-12045
?’	-12046
▁आवि	-12047
ईसी	-12048
▁फेक	-12049
▁घूमते	-12050
▁इस्पात	-12051
िनेंट	-12052
▁अनुभूति	-12053
▁पूर्वांचल	-12054
▁फत	-12055
▁मची	-12056
्ज	-12057
▁सुराग	-12058
▁धुंध	-12059
▁संजू	-12060
▁कामगार	-12061
▁वाणिज्यिक	-12062
▁स्टेन	-12063
▁कागजात	-12064
▁पुरस्कृत	-12065
▁हौसला	-12066
टावा	-12067
▁फैट	-12068
▁ध्वज	-12069
▁मेम	-12070
▁परस	-12071
▁ब्या	-12072
▁छे	-12073
▁पख	-12074
▁शारदा	-12075
▁मुमकिन	-12076
▁वामपंथी	-12077
▁चुकाने	-12078
▁रिटायर्ड	-12079
▁कयास	-12080
▁जमात	-12081
▁बागपत	-12082
▁सुप्र	-12083
▁गैलेक्सी	-12084
ाइयों	-12085
▁यूके	-12086
▁साक्षर	-12087
▁सेक्रेट	-12088
▁विस्फोटक	-12089
किसी	-12090
▁ं	-12091
▁चोटी	-12092
▁एसके	-12093
▁अतिथियों	-12094
▁धर्मों	-12095
▁जवाहरलाल	-12096
हानि	-12097
ुकथा	-12098
▁गाइडलाइन	-12099
िस्ट्री	-12100
▁अख़बार	-12101
वित्री	-12102
▁डन	-12103
प्रसार	-12104
रीना	-12105
▁पहुंचना	-12106
▁क्वी	-12107
▁बंगले	-12108
▁एक्सट	-12109
▁वर्णित	-12110
तुम	-12111
▁राजग	-12112
▁प्रवि	-12113
पेड	-12114
ट्टर	-12115
लग्न	-12116
गांठ	-12117
▁परो	-12118
▁विधिव	-12119
▁अलविदा	-12120
▁आजीविका	-12121
▁ch	-12122
शास्त्री	-12123
ब्रेरी	-12124
▁लगवा	-12125
▁इनपुट	-12126
▁ऊना	-12127
▁दिनचर्या	-12128
▁सिसोदिया	-12129
▁समझकर	-12130
▁वंदना	-12131
वर्गीय	-12132
▁अप्लाई	-12133
▁डिलीट	-12134
र्देश	-12135
▁पहुँचने	-12136
▁बजाज	-12137
▁गुणा	-12138
▁थन	-12139
देख	-12140
ीनगर	-12141
▁गलियों	-12142
▁क्रमशः	-12143
▁जुन	-12144
▁सूद	-12145
▁प्रयुक्त	-12146
▁इंडस्ट्रीज	-12147
▁टॉयलेट	-12148
पड़	-12149
▁हस्तियों	-12150
▁पीडी	-12151
▁उपाधि	-12152
▁हेलमेट	-12153
▁परहेज	-12154
▁दौड़ा	-12155
▁दबिश	-12156
▁तोहफा	-12157
साज	-12158
▁बुंद	-12159
ंपर्क	-12160
▁कस्बा	-12161
ब्राह	-12162
▁ट्यूटोरियल	-12163
बीच	-12164
▁निकायों	-12165
निय	-12166
▁’’	-12167
▁कोषाध्यक्ष	-12168
▁राघव	-12169
मेक	-12170
▁दंगे	-12171
▁छिपे	-12172
▁मुंडा	-12173
दोई	-12174
▁टुकड़ा	-12175
▁नामित	-12176
▁पीएचडी	-12177
▁उखा	-12178
▁रिपब्लिक	-12179
▁संरक्षित	-12180
▁---	-12181
▁भैर	-12182
▁सिद्धि	-12183
▁पुनर्वास	-12184
▁अय्यर	-12185
▁छोड़े	-12186
▁मर्जी	-12187
हिया	-12188
▁डेमोक्रेट	-12189
▁एसआई	-12190
▁जनगणना	-12191
▁बुलंदशहर	-12192
▁सुरेन्द्र	-12193
▁एनटी	-12194
▁बेटों	-12195
▁निकालना	-12196
▁ऑडिट	-12197
▁डिपो	-12198
▁फेंकने	-12199
्नवी	-12200
▁प्रकोष्ठ	-12201
▁प्यारे	-12202
▁वर्चस्व	-12203
▁नें	-12204
▁यहू	-12205
टों	-12206
▁पैड	-12207
कास्ट	-12208
नीचर	-12209
▁भरना	-12210
▁बीएसपी	-12211
▁घटित	-12212
▁हरक	-12213
▁बगी	-12214
▁हं	-12215
▁अमेजन	-12216
▁गायों	-12217
▁शेड्यूल	-12218
▁नौकरियां	-12219
ेंशियल	-12220
▁लगना	-12221
▁सर्वोत्तम	-12222
▁खड़	-12223
▁गुमराह	-12224
▁छपी	-12225
▁पाटीदार	-12226
छे	-12227
▁हँस	-12228
एनसी	-12229
ौड़ा	-12230
▁ब्लॉगर	-12231
▁नमूने	-12232
▁पत्तियों	-12233
आरएफ	-12234
क्रिय	-12235
▁गश्त	-12236
▁जनप्रतिनिधियों	-12237
▁सचेत	-12238
▁झर	-12239
▁आशय	-12240
करा	-12241
बुद्ध	-12242
▁उठते	-12243
▁अँ	-12244
न्नू	-12245
▁बेदी	-12246
तया	-12247
▁ऐक्ट	-12248
▁पूछते	-12249
श्चिक	-12250
▁एनआईए	-12251
▁सल्ल	-12252
वीन	-12253
▁शाहजहांपुर	-12254
मेरा	-12255
▁अंकुर	-12256
▁ढाल	-12257
▁जल्दबाजी	-12258
▁वहन	-12259
▁सिद्दीकी	-12260
▁घने	-12261
स्खलन	-12262
▁अपार्टमेंट	-12263
▁कोलंब	-12264
▁विराजमान	-12265
ैड	-12266
▁मर्द	-12267
▁राहु	-12268
▁ग़लत	-12269
▁धरा	-12270
▁शिया	-12271
▁स्थानांतरण	-12272
▁इज़	-12273
▁प्यारी	-12274
▁सम्बोधित	-12275
▁आर्यन	-12276
▁ऋषिकेश	-12277
▁फरमान	-12278
▁सती	-12279
डे़	-12280
▁ताज़ा	-12281
▁महासागर	-12282
▁कदमों	-12283
जाब	-12284
▁मोहब्बत	-12285
▁दयान	-12286
▁अत्यन्त	-12287
▁क्वा	-12288
▁नैतिकता	-12289
▁इण्ड	-12290
हतिया	-12291
▁हजरत	-12292
▁शिकस्त	-12293
ढा	-12294
▁भलाई	-12295
▁उर्वर	-12296
▁अहिंसा	-12297
▁प्रैक्टिस	-12298
्प्र	-12299
▁जिसपर	-12300
▁धूम्र	-12301
▁कलेक्ट्रेट	-12302
बेन	-12303
िनर	-12304
▁रिय	-12305
▁अथॉरिटी	-12306
▁स्वदेशी	-12307
▁उम्मीदों	-12308
▁हायर	-12309
▁बटोर	-12310
▁जाह्नवी	-12311
ोव	-12312
▁दीवान	-12313
▁अरविन्द	-12314
बनी	-12315
▁चॉकलेट	-12316
▁कैंडिड	-12317
▁एक्सेस	-12318
▁उसन	-12319
▁संक्र	-12320
विरोधी	-12321
▁दोगुना	-12322
▁कुएं	-12323
▁ज़रा	-12324
▁सफ़ेद	-12325
▁स्किल	-12326
▁कुरु	-12327
▁निमंत्र	-12328
▁एलि	-12329
▁टेस्टिंग	-12330
सले	-12331
▁सांग	-12332
▁चार्जशीट	-12333
▁प्रजाति	-12334
▁कंटेंट	-12335
▁आदान	-12336
▁सुकून	-12337
योग्य	-12338
▁मोटापा	-12339
▁शहादत	-12340
▁मरे	-12341
अर्चना	-12342
▁मेरिट	-12343
▁बीर	-12344
▁लघुकथा	-12345
गुण	-12346
आरटी	-12347
खड़	-12348
▁क्ले	-12349
▁मछल	-12350
▁हेर	-12351
▁एडवांस	-12352
क्यों	-12353
▁स्टीव	-12354
▁प्रॉब्लम	-12355
▁करिश्मा	-12356
▁त्रास	-12357
▁धमक	-12358
▁अवसाद	-12359
▁पेशाब	-12360
▁बनवाया	-12361
▁द्रविड़	-12362
▁महोदय	-12363
▁ठिकानों	-12364
विमर्श	-12365
▁विपिन	-12366
▁इन्टरनेट	-12367
्यूमर	-12368
ज़ों	-12369
▁लंच	-12370
▁चाहने	-12371
▁हमलावरों	-12372
▁बबल	-12373
▁पारदर्शी	-12374
▁बेटियां	-12375
▁कुमा	-12376
कानूनी	-12377
ज्ज्वल	-12378
वाहाटी	-12379
शूट	-12380
▁निमंत्रण	-12381
▁धनिया	-12382
▁इब	-12383
▁झूठा	-12384
▁अउर	-12385
ान्वित	-12386
▁प्रेमचंद	-12387
▁आश्रय	-12388
▁निःशुल्क	-12389
▁मेधा	-12390
▁ब्लाग	-12391
▁बांधकर	-12392
ओवर	-12393
पीजी	-12394
▁ध्रुव	-12395
▁टैबलेट	-12396
▁अल्पसंख्यकों	-12397
▁बनें	-12398
▁रश्म	-12399
▁डिजाइनर	-12400
▁अनुसरण	-12401
▁क्रो	-12402
▁जुडी	-12403
ारिया	-12404
▁फ्रां	-12405
▁दव	-12406
▁रिकवरी	-12407
▁कबूल	-12408
दशा	-12409
▁जाव	-12410
▁विदा	-12411
▁काटे	-12412
▁प्राइस	-12413
र्वा	-12414
▁नाख	-12415
▁टोट	-12416
शब्	-12417
ंगण	-12418
र्ताओं	-12419
▁पालक	-12420
▁रामचंद्र	-12421
▁लग्	-12422
फ़्तार	-12423
ब्री	-12424
▁बैठते	-12425
ेलखंड	-12426
ाफ्ट	-12427
▁पांड्या	-12428
र्निया	-12429
▁रत्	-12430
▁रास	-12431
कोत्तर	-12432
▁पैंट	-12433
मेस्टर	-12434
▁मेघालय	-12435
▁कफ	-12436
▁कों	-12437
▁प्रह	-12438
▁कांगड़ा	-12439
गली	-12440
िलो	-12441
कमान	-12442
ामाद	-12443
▁पत्थ	-12444
आरओ	-12445
▁तुमसे	-12446
विच	-12447
▁वगैरह	-12448
मंत्रियों	-12449
▁संचालकों	-12450
गमेंट	-12451
▁नीले	-12452
▁वैर	-12453
▁रोहिंग	-12454
नस	-12455
▁थाली	-12456
▁एडीएम	-12457
▁पुस्तकालय	-12458
तीकरण	-12459
▁घाव	-12460
मानुसार	-12461
▁सीतारमण	-12462
▁विड	-12463
▁ख़री	-12464
▁परिप	-12465
▁उंगली	-12466
▁जन्माष्टमी	-12467
▁कटे	-12468
ूफ	-12469
▁बिछा	-12470
▁इंडियंस	-12471
▁रूपी	-12472
▁न्यायपालिका	-12473
▁दुर	-12474
▁ताकतवर	-12475
▁कनेक्टिविटी	-12476
▁सन्देश	-12477
'।	-12478
स्स	-12479
▁लस	-12480
▁दाऊद	-12481
▁परदे	-12482
▁असाधारण	-12483
▁तग	-12484
▁परीक्षार्थी	-12485
▁कलक	-12486
▁सम्पत्ति	-12487
▁यौ	-12488
▁प्रसि	-12489
मर्रा	-12490
▁पिर	-12491
▁भगवा	-12492
▁अंग्रेज	-12493
▁फर्नीचर	-12494
▁पार्थिव	-12495
वाब	-12496
▁वृद्धा	-12497
▁जीवों	-12498
▁सिक्किम	-12499
मोट	-12500
▁कंध	-12501
▁फ़ाय	-12502
▁तिब्बत	-12503
▁प्रासंगिक	-12504
▁एकेडमी	-12505
▁गोल्डन	-12506
▁रामेश्वर	-12507
रर	-12508
्राह	-12509
▁रजा	-12510
▁नमा	-12511
▁रिच	-12512
▁टोपी	-12513
▁भूपेंद्र	-12514
▁अविनाश	-12515
▁केमिकल	-12516
▁ढोल	-12517
▁क्वाली	-12518
▁कैट	-12519
▁चित्रा	-12520
▁एआई	-12521
▁छिप	-12522
▁प्लेन	-12523
एमयू	-12524
▁हरियाली	-12525
▁फलस्वरूप	-12526
▁संलग्न	-12527
▁सुखी	-12528
ुरप्पा	-12529
▁बदन	-12530
▁सूचीबद्ध	-12531
▁धर्मनिरपेक्ष	-12532
▁सुगम	-12533
▁बं	-12534
▁किग्रा	-12535
▁हैसियत	-12536
्युलर	-12537
▁भाटिया	-12538
▁दिल्लीः	-12539
▁माइक्रोस	-12540
ist	-12541
▁लुभा	-12542
▁खट्टर	-12543
रूम	-12544
▁घब	-12545
▁घेराव	-12546
▁रामनगर	-12547
▁हटने	-12548
▁बांटा	-12549
▁तुम्हे	-12550
▁इंटी	-12551
▁बेल्	-12552
ब्बर	-12553
मौ	-12554
▁तबाह	-12555
▁बयां	-12556
▁कैप्चर	-12557
▁नू	-12558
▁खेर	-12559
ंताओं	-12560
▁विनिर्माण	-12561
राल	-12562
▁सुलझा	-12563
▁कतर	-12564
शिला	-12565
▁1.	-12566
▁श्या	-12567
▁कार्यक्षेत्र	-12568
▁वैद्य	-12569
▁बिलियन	-12570
ोलेशन	-12571
▁बाँध	-12572
▁कांच	-12573
▁कबड्डी	-12574
▁मऊ	-12575
▁निषाद	-12576
▁धंधा	-12577
▁इशारे	-12578
▁लोका	-12579
▁धूम्रपान	-12580
▁रूबर	-12581
▁कपास	-12582
▁अनमोल	-12583
▁वार्डों	-12584
▁18	-12585
हाइड	-12586
▁सहर	-12587
▁अस्थिर	-12588
▁टैंकर	-12589
▁ठंडी	-12590
पत्य	-12591
बंधक	-12592
▁हफ्त	-12593
▁सेटिंग	-12594
मला	-12595
वादा	-12596
▁डॉक्टर्स	-12597
▁शातिर	-12598
ानुभूति	-12599
▁जबरदस्ती	-12600
हमने	-12601
▁चिह्नित	-12602
▁विक्की	-12603
▁ज़रिए	-12604
आरआई	-12605
▁हसी	-12606
ुख	-12607
्यम	-12608
▁विधिक	-12609
▁सभापति	-12610
र्मन	-12611
▁वच	-12612
▁शीला	-12613
▁चुनिंदा	-12614
सेप्ट	-12615
▁माइन	-12616
▁चिड़िया	-12617
▁प्रताड़ित	-12618
▁हंगामे	-12619
re	-12620
▁अगवा	-12621
▁भरपाई	-12622
सुम	-12623
डों	-12624
▁गुवाहाटी	-12625
▁तेवर	-12626
▁हजारी	-12627
▁कक्षाओं	-12628
▁खरीदते	-12629
ंटाइन	-12630
सुनी	-12631
▁छठी	-12632
▁कैप्शन	-12633
▁प्राइम	-12634
▁समस	-12635
▁धंधे	-12636
▁पिंक	-12637
▁धमाका	-12638
▁रूबरू	-12639
क़ा	-12640
छी	-12641
▁दक्षता	-12642
▁पटवारी	-12643
▁संगीता	-12644
▁अमान	-12645
▁कुक	-12646
▁होड़	-12647
▁स्वास्थ	-12648
▁बेंगलुरू	-12649
ेटिक	-12650
▁एंकर	-12651
ओमी	-12652
ल्लभ	-12653
▁छत्र	-12654
▁शास्त्रीय	-12655
तूस	-12656
▁परेशानियां	-12657
▁परीक्षार्थियों	-12658
ंपर	-12659
▁अनेकों	-12660
सह	-12661
श्वरी	-12662
▁लाये	-12663
▁छुट्टियों	-12664
▁सन्ना	-12665
▁सेमेस्टर	-12666
▁आफिस	-12667
▁अद्वितीय	-12668
▁राल	-12669
राबाद	-12670
▁घटिया	-12671
▁रोहिंग्या	-12672
▁खर्चा	-12673
▁उदासीन	-12674
▁फेडरेशन	-12675
▁जन्मे	-12676
▁डिब्बे	-12677
▁सिनेमाघरों	-12678
▁साबुन	-12679
▁तालिका	-12680
▁परश	-12681
▁बनीं	-12682
अभी	-12683
▁बदायूं	-12684
ंर	-12685
▁नामी	-12686
▁वृश्चिक	-12687
▁आर्म	-12688
▁हवाओं	-12689
जनन	-12690
नव	-12691
▁काबुल	-12692
कुंड	-12693
▁मज़बूत	-12694
▁प्रशंसक	-12695
▁कच्ची	-12696
▁उपक्रम	-12697
▁टोला	-12698
द्रोही	-12699
▁बई	-12700
▁श्	-12701
▁तस्कर	-12702
पैड	-12703
▁भली	-12704
▁रवैये	-12705
▁दूषित	-12706
▁बैठकों	-12707
▁फीफा	-12708
▁भेजना	-12709
▁अजित	-12710
▁मानदेय	-12711
▁हस्तांतर	-12712
▁हुक	-12713
स्ट्रक्चर	-12714
▁अनुमानित	-12715
पर्य	-12716
मोचन	-12717
▁ताबड़	-12718
▁मापद	-12719
▁लड़ते	-12720
▁चौर	-12721
▁उमड़	-12722
▁कैरे	-12723
ort	-12724
▁नस्ल	-12725
कारो	-12726
▁बहुल	-12727
कोई	-12728
▁निपटा	-12729
▁इटावा	-12730
▁पीवी	-12731
▁प्यास	-12732
▁हड्डियों	-12733
एब	-12734
▁मकानों	-12735
▁कॉम्प	-12736
दोष	-12737
▁रेन	-12738
▁एजेंडा	-12739
सीमा	-12740
▁जलकर	-12741
▁शिना	-12742
▁रक्तचाप	-12743
▁जज्	-12744
▁रेस्त	-12745
दिवसीय	-12746
फानन	-12747
▁घों	-12748
युद्ध	-12749
▁शोरूम	-12750
▁प्रक्रियाओं	-12751
राज्यपाल	-12752
केन	-12753
कोल	-12754
▁फिंगर	-12755
क्षे	-12756
▁डिप्रेशन	-12757
रोधक	-12758
▁साइज	-12759
▁धुआ	-12760
चढ़ाव	-12761
▁वांछित	-12762
▁सिमट	-12763
▁अगल	-12764
▁हफ्तों	-12765
गृह	-12766
भिषेक	-12767
▁गायिका	-12768
▁नेटवर्	-12769
▁थाईलैंड	-12770
▁लीवर	-12771
शॉट	-12772
▁परिपक्व	-12773
▁भवनों	-12774
▁झारखण्ड	-12775
ज़त	-12776
नीतिक	-12777
▁मच्छर	-12778
कॉमर्स	-12779
▁राइफल	-12780
▁कूड़े	-12781
▁रपत	-12782
▁छलांग	-12783
▁दामाद	-12784
▁शैतान	-12785
▁सोचे	-12786
▁होंठ	-12787
▁खै	-12788
▁वाट	-12789
?"	-12790
▁नवजोत	-12791
▁प्रेष	-12792
▁सन्दर्भ	-12793
▁कैलि	-12794
▁शाका	-12795
▁नीला	-12796
▁ग्रंथों	-12797
▁पालतू	-12798
ांध	-12799
▁यूएई	-12800
▁रखनी	-12801
▁तरुण	-12802
▁रामगढ़	-12803
र्मेंस	-12804
▁साम्प्र	-12805
बुल	-12806
फायर	-12807
▁साईं	-12808
▁निज	-12809
▁सजावट	-12810
▁मालवीय	-12811
▁राष्ट्रवादी	-12812
▁नेक	-12813
▁रमजान	-12814
▁कारतूस	-12815
▁षद	-12816
▁रमा	-12817
▁फिसल	-12818
▁मुंग	-12819
▁काबिज	-12820
▁पुतिन	-12821
▁कॉलिंग	-12822
▁ऐड	-12823
ूराम	-12824
▁पीला	-12825
▁पूरक	-12826
▁बढ़ाता	-12827
▁हार्मोन	-12828
▁कोरोनावायरस	-12829
▁लौटते	-12830
▁निगेटिव	-12831
स्मिक	-12832
▁अफसोस	-12833
▁मेजब	-12834
▁गान	-12835
▁पाएं	-12836
▁एस्टेट	-12837
▁कोहराम	-12838
ालियन	-12839
▁मोटर्स	-12840
▁त्योहारों	-12841
▁टें	-12842
▁अल्म	-12843
▁तारों	-12844
▁दिशानि	-12845
▁भिगो	-12846
कूद	-12847
▁पीसकर	-12848
▁पसीने	-12849
▁छापे	-12850
▁टावर	-12851
ताज	-12852
शाक	-12853
▁छात्रवृत्ति	-12854
स्की	-12855
▁राष्ट्रवाद	-12856
▁चुनी	-12857
▁भावी	-12858
▁स्वरुप	-12859
▁कहल	-12860
▁मनोबल	-12861
▁कुं	-12862
▁भूट	-12863
▁जानबूझकर	-12864
णाधीन	-12865
ैगन	-12866
▁ज़ाहिर	-12867
▁नाश्ता	-12868
▁कोण	-12869
▁थिएटर	-12870
म्पर	-12871
▁बनाएंगे	-12872
▁इसरो	-12873
▁अवस्थी	-12874
सात	-12875
▁बिताने	-12876
▁रेणु	-12877
▁असाम	-12878
▁रातों	-12879
▁सुचारू	-12880
▁शादीशुदा	-12881
▁गुज़र	-12882
▁ट्रांसफार्म	-12883
व्यों	-12884
▁दरगाह	-12885
▁ओपीडी	-12886
▁केर	-12887
▁झांक	-12888
▁आज़ाद	-12889
ियुरप्पा	-12890
▁मुश्किलों	-12891
हों	-12892
▁सुस	-12893
हमारे	-12894
▁आटे	-12895
▁प्रांतीय	-12896
▁खुलेआम	-12897
▁कवरेज	-12898
ोपिक	-12899
▁त्रिवेदी	-12900
▁अहमियत	-12901
▁मिलाएं	-12902
▁अश्विनी	-12903
▁मौतें	-12904
▁रामपाल	-12905
▁टोक्यो	-12906
किक	-12907
▁चश्मा	-12908
▁कार्यभार	-12909
▁एलर्जी	-12910
▁प्रतिस्पर्	-12911
प्रण	-12912
▁फर्श	-12913
▁अंदाज़	-12914
▁मुद्र	-12915
▁यादों	-12916
▁सीताराम	-12917
▁मयंक	-12918
▁पढने	-12919
▁याचिकाकर्ता	-12920
▁संभवत	-12921
▁बस्त	-12922
द्धान्त	-12923
मुन	-12924
मैट	-12925
▁मुआवजे	-12926
ापनों	-12927
▁एकाग्र	-12928
वधि	-12929
पारा	-12930
क्साइड	-12931
▁अमृता	-12932
▁अध्यात्म	-12933
▁एनी	-12934
▁मर्डर	-12935
▁जीन	-12936
खबरी	-12937
▁नासा	-12938
दीव	-12939
▁विधिवत	-12940
▁सुदृ	-12941
▁प्रतापगढ़	-12942
▁आभा	-12943
▁ऑस	-12944
घाती	-12945
▁कुत्ता	-12946
▁बिटक	-12947
▁औरंगाबाद	-12948
▁हाथरस	-12949
▁दिशानिर्देश	-12950
▁समाधि	-12951
कौन	-12952
▁रुपयों	-12953
▁आरपीएफ	-12954
▁फौरन	-12955
▁उपद्र	-12956
▁डेड	-12957
बाज़ी	-12958
▁चीज़ें	-12959
▁बिजनौर	-12960
समी	-12961
▁पड़ोसियों	-12962
▁कम्पन	-12963
▁वेदों	-12964
▁विख्यात	-12965
▁ट्रीटमेंट	-12966
▁लची	-12967
▁कानों	-12968
▁कार्यान्वयन	-12969
▁लड्डू	-12970
▁नरसिंह	-12971
▁कोतवाल	-12972
ंबे	-12973
▁कटाई	-12974
जाल	-12975
▁जिन्ना	-12976
ोगा	-12977
▁थर्ड	-12978
▁बडा	-12979
▁संपादन	-12980
▁टूटे	-12981
▁क्लिप	-12982
▁सज्जन	-12983
▁झूम	-12984
▁विकार	-12985
▁गुजराती	-12986
▁गोवर्धन	-12987
▁कास्ट	-12988
▁छिड़काव	-12989
इडर	-12990
▁कुंजी	-12991
▁पॉलिट	-12992
▁गुरुद्वारा	-12993
ईल	-12994
फ़े	-12995
▁जुआ	-12996
जिस्ट	-12997
▁टैटू	-12998
▁खक	-12999
▁सावित्री	-13000
▁झोप	-13001
▁ताबड़तोड़	-13002
▁सिक्का	-13003
रोन	-13004
▁थरूर	-13005
▁पहुच	-13006
▁पहुंचेंगे	-13007
▁मचाया	-13008
▁अपेक्षाकृत	-13009
▁खुदा	-13010
▁दार्	-13011
ुलेशन	-13012
शिष्ट	-13013
▁लक्ष्यों	-13014
▁फैसलों	-13015
▁पाठशाला	-13016
▁धमाकेदार	-13017
▁वक्	-13018
▁बिज़	-13019
द्वानी	-13020
▁ओह	-13021
▁करूं	-13022
▁जिंद	-13023
▁समर्थित	-13024
एड	-13025
▁कमरों	-13026
▁कॉम्	-13027
▁गोचर	-13028
▁जीरा	-13029
▁कहावत	-13030
कने	-13031
▁प्रांगण	-13032
▁हब	-13033
▁चिराग	-13034
▁इतर	-13035
ढे	-13036
▁सहानुभूति	-13037
ight	-13038
▁आठवीं	-13039
▁वक्ता	-13040
▁शिक्षामित्र	-13041
▁बेचे	-13042
▁फड	-13043
▁पहिया	-13044
खानी	-13045
▁सघन	-13046
ap	-13047
▁जनसंपर्क	-13048
्यूर	-13049
▁धीरज	-13050
वेली	-13051
▁टर्मिनल	-13052
▁रिचार्ज	-13053
▁निशा	-13054
▁पकड़ी	-13055
▁महमूद	-13056
ूथ	-13057
वेरा	-13058
▁कोरियाई	-13059
▁पार्षदों	-13060
▁बैर	-13061
▁माथ	-13062
▁अत्याधुनिक	-13063
▁समकालीन	-13064
▁बंगल	-13065
▁स्वाय	-13066
ers	-13067
▁प्रचारक	-13068
▁नं	-13069
सम्मान	-13070
▁घुसने	-13071
▁क्वारंटाइन	-13072
▁एएसआई	-13073
▁जीवंत	-13074
साल	-13075
ारसी	-13076
▁व्यंजन	-13077
स्ट्रॉल	-13078
भजन	-13079
▁अनीता	-13080
▁आइक	-13081
▁मंदसौर	-13082
▁संकलन	-13083
ड्रा	-13084
▁मिटाने	-13085
▁हारने	-13086
ंचे	-13087
▁सिरसा	-13088
▁अद्य	-13089
▁टूटा	-13090
स्मरण	-13091
▁गोपी	-13092
▁पदस्थ	-13093
▁आईपीसी	-13094
▁ओपनिंग	-13095
▁टंडन	-13096
▁आरपी	-13097
▁कोल्ड	-13098
▁सिप	-13099
▁मिलान	-13100
▁झड़प	-13101
ामाजिक	-13102
▁देवरिया	-13103
▁स्नातकोत्तर	-13104
▁उद्यमियों	-13105
चुरी	-13106
▁राठौड़	-13107
ारोपण	-13108
▁उदास	-13109
▁फोड़	-13110
▁ब्यो	-13111
▁स्टाइलिश	-13112
▁डिवीजन	-13113
▁गोपनीयता	-13114
हाउस	-13115
▁निषे	-13116
▁अनोखा	-13117
▁कीटना	-13118
न्वित	-13119
▁हरदोई	-13120
▁होटलों	-13121
▁सर्किल	-13122
▁चलत	-13123
▁किस्से	-13124
हाड़	-13125
▁नियत	-13126
▁छावनी	-13127
▁घृणा	-13128
टेलाइट	-13129
ोलो	-13130
▁गियर	-13131
▁मनीषा	-13132
▁मुक्के	-13133
कूला	-13134
▁धरोहर	-13135
▁समन्वयक	-13136
▁चालीस	-13137
▁हांगकांग	-13138
▁एले	-13139
▁बीएसएनएल	-13140
▁तमा	-13141
▁शृ	-13142
▁लाइब्रेरी	-13143
▁बिस	-13144
▁इकोन	-13145
▁राशियों	-13146
▁रक्षाबंधन	-13147
दराज	-13148
हमें	-13149
▁सत्ताधारी	-13150
ालैंड	-13151
▁उंगल	-13152
▁भागे	-13153
▁देवा	-13154
▁आंदोल	-13155
▁दाने	-13156
▁रोते	-13157
▁सीआई	-13158
ile	-13159
हीर	-13160
गोलिक	-13161
▁गवाही	-13162
युग	-13163
▁खुशखबरी	-13164
▁जयंत	-13165
▁माइक्रोसॉफ्ट	-13166
ce	-13167
ोकाम	-13168
ानियों	-13169
▁ईसी	-13170
ोनिक	-13171
▁कांव	-13172
▁खीर	-13173
▁कैमरों	-13174
▁कॉमर्स	-13175
▁श्रीम	-13176
▁ओस	-13177
▁जबर्द	-13178
ाध्यक्ष	-13179
▁राजभवन	-13180
ंते	-13181
▁हादसों	-13182
▁अकाल	-13183
▁ब्यौ	-13184
▁विलंब	-13185
▁चना	-13186
▁डीएनए	-13187
▁विज्ञापनों	-13188
,.	-13189
▁पारस	-13190
▁साधक	-13191
▁कमज़ोर	-13192
▁शाला	-13193
ण्डी	-13194
▁गोलियों	-13195
▁वॉटर	-13196
▁शीट	-13197
▁इमारतों	-13198
रसन	-13199
▁हेल्पलाइन	-13200
▁नियोजन	-13201
▁ड्रॉ	-13202
▁सुरंग	-13203
▁चंबा	-13204
▁शिनाख्त	-13205
विलास	-13206
▁वैक	-13207
▁गोमती	-13208
▁फ्लैश	-13209
▁ब्ले	-13210
▁पौष्टिक	-13211
▁डार्क	-13212
▁सौंपने	-13213
▁स्रोतों	-13214
im	-13215
▁बेवजह	-13216
जुल	-13217
▁रीवा	-13218
डि़यों	-13219
▁सफ़र	-13220
▁नियमानुसार	-13221
कोष	-13222
▁मूत्र	-13223
▁बेल्जियम	-13224
▁खरे	-13225
▁साधनों	-13226
ाहि	-13227
▁सैंड	-13228
▁गहने	-13229
▁प्रदूषित	-13230
▁पूछना	-13231
मंच	-13232
सूसी	-13233
▁सशक्तिकरण	-13234
ोभ	-13235
▁दाना	-13236
▁चने	-13237
▁मध्या	-13238
▁टिकी	-13239
▁साठ	-13240
▁बदबू	-13241
▁चन्द्रमा	-13242
▁ऎ	-13243
▁पत्थरों	-13244
▁डिनर	-13245
▁गुजरना	-13246
▁कार्टून	-13247
ंन	-13248
▁लंका	-13249
▁इफेक्ट	-13250
गुप्त	-13251
▁माकपा	-13252
▁हल्द्वानी	-13253
▁तनु	-13254
▁मन्त्र	-13255
▁मनोकाम	-13256
यदि	-13257
▁de	-13258
बाजार	-13259
▁रावल	-13260
▁निर्माणाधीन	-13261
▁उपयोगिता	-13262
ललिता	-13263
▁जैकेट	-13264
▁पंचकूला	-13265
▁कन्नौज	-13266
्ठे	-13267
णियां	-13268
▁निकाह	-13269
▁सेटअप	-13270
▁ब्राह्मणों	-13271
▁सम्पाद	-13272
▁खुशियों	-13273
▁उठाये	-13274
सरा	-13275
▁चावला	-13276
बहन	-13277
▁क्षत्र	-13278
▁मधेपुरा	-13279
▁पीकर	-13280
▁चित्रों	-13281
▁अरबी	-13282
▁सीटी	-13283
▁लोकेश	-13284
पिन	-13285
▁बॉन्ड	-13286
▁स्वर्गीय	-13287
▁भतीजे	-13288
▁सीतापुर	-13289
▁भूपेश	-13290
▁अघ	-13291
भाजपा	-13292
▁वरीयता	-13293
▁एण्ड	-13294
▁चूका	-13295
▁पीटर	-13296
▁चोटिल	-13297
▁मनोकामना	-13298
▁वर्गी	-13299
▁जेवर	-13300
▁शिक्षिका	-13301
टाइम	-13302
▁प्रेमियों	-13303
▁जले	-13304
▁महो	-13305
▁सीज	-13306
जाबाद	-13307
िकाने	-13308
▁डीआईजी	-13309
त्थे	-13310
▁सेमिन	-13311
ंचा	-13312
ैमर	-13313
▁चाट	-13314
मांड	-13315
▁सौम	-13316
ियोग्रा	-13317
▁सेक्रेटरी	-13318
▁ओझा	-13319
▁चाँद	-13320
▁हेमा	-13321
▁सेफ्टी	-13322
▁रसूल	-13323
▁बुंदेलखंड	-13324
▁कुख्यात	-13325
▁ठुक	-13326
▁बिगड़ने	-13327
▁सभ्य	-13328
▁हटाए	-13329
▁भौगोलिक	-13330
जाति	-13331
फ़्त	-13332
▁पहनना	-13333
▁कंज	-13334
▁येद	-13335
▁बॉम्बे	-13336
▁दबद	-13337
▁रसी	-13338
▁पतली	-13339
▁रेस्तरां	-13340
।,	-13341
▁लाला	-13342
▁पटाखों	-13343
▁पीडीपी	-13344
▁सौह	-13345
▁तंबा	-13346
▁जेठ	-13347
▁धड़	-13348
▁अंडा	-13349
▁वाल्मीकि	-13350
▁सहभाग	-13351
दड़	-13352
भारतीय	-13353
▁खानपान	-13354
मिंग	-13355
▁समलैंगिक	-13356
राचार्य	-13357
▁डेबिट	-13358
▁मेजबानी	-13359
बीस	-13360
▁मेंबर	-13361
▁हाथियों	-13362
▁पछ	-13363
▁फेंका	-13364
▁राजनेताओं	-13365
▁चंप	-13366
▁आजतक	-13367
▁यादें	-13368
र्प	-13369
▁कलकत्ता	-13370
▁सेतु	-13371
▁-.	-13372
्रास्ट्रक्चर	-13373
▁अधूरा	-13374
▁धमाल	-13375
▁बेसब्री	-13376
▁उद्यमी	-13377
▁सिद्धान्त	-13378
▁एंव	-13379
▁अनुज	-13380
ेलियन	-13381
▁एहतिया	-13382
▁छेद	-13383
▁देसाई	-13384
▁समूचे	-13385
ि़	-13386
▁पेशा	-13387
▁वाइस	-13388
जीब	-13389
▁औषधी	-13390
▁मलबे	-13391
▁प्रतिद्वंद्वी	-13392
▁थमा	-13393
▁प्रच	-13394
स्थानी	-13395
▁मियां	-13396
▁दरार	-13397
▁कराता	-13398
▁वॉट्स	-13399
▁अधिवेशन	-13400
▁ऑर	-13401
▁वोडा	-13402
समाज	-13403
.!	-13404
म्मा	-13405
▁ज़िले	-13406
▁स्कूटी	-13407
▁मेहंदी	-13408
मताओं	-13409
▁मिटा	-13410
▁कृत्य	-13411
णक्य	-13412
▁खाद्या	-13413
▁कैपिटल	-13414
▁सुलभ	-13415
▁पांचों	-13416
▁गंदे	-13417
▁दबोच	-13418
अमेर	-13419
▁समझें	-13420
▁दौलत	-13421
▁पीड	-13422
उप	-13423
▁to	-13424
▁जनत	-13425
▁बैंगलोर	-13426
▁सब्सक्र	-13427
▁छूने	-13428
▁इंसानों	-13429
▁गलतियों	-13430
बॉक्स	-13431
ाबाद	-13432
▁घिर	-13433
ोग्य	-13434
▁झुलस	-13435
▁नारद	-13436
▁खली	-13437
▁वसीम	-13438
▁आईबी	-13439
▁जासूसी	-13440
▁भगवती	-13441
▁अपेक्षित	-13442
▁तस्करों	-13443
▁जीवनशैली	-13444
▁ओटी	-13445
▁वॉर	-13446
▁रामा	-13447
▁सौगा	-13448
त्यक्ष	-13449
▁स्या	-13450
▁स्ली	-13451
चेरी	-13452
प्रणाली	-13453
▁फ़िल्मों	-13454
▁झेलनी	-13455
▁एटीएस	-13456
▁पंख	-13457
▁लेडी	-13458
फाश	-13459
▁com	-13460
▁प्रात	-13461
▁यमन	-13462
▁शां	-13463
मां	-13464
▁पूर	-13465
▁नोबेल	-13466
▁कैटेगरी	-13467
▁भाल	-13468
▁अमेरिकन	-13469
▁साख	-13470
▁लाइक	-13471
▁नाराज़	-13472
▁पुष्कर	-13473
▁वॉक	-13474
▁निम	-13475
▁नोकिया	-13476
▁प्रज्ञा	-13477
▁निष्क्रिय	-13478
▁वासियों	-13479
कथा	-13480
▁येदियुरप्पा	-13481
▁शिवम	-13482
मीड	-13483
▁गंदा	-13484
▁बिटकॉइन	-13485
▁चैक	-13486
▁मचाने	-13487
▁ह्रदय	-13488
ूसराय	-13489
▁स्विच	-13490
▁इक्विटी	-13491
▁श्राद्ध	-13492
भगत	-13493
▁रायगढ़	-13494
्रोजन	-13495
▁एथलीट	-13496
▁शाखाओं	-13497
▁प्रतिष्ठान	-13498
▁सस्पेंड	-13499
▁भील	-13500
जरलैंड	-13501
▁नवाजा	-13502
▁तैम	-13503
न्नों	-13504
▁लूटपाट	-13505
▁सौरव	-13506
प्पड़	-13507
▁महाकाल	-13508
▁शुरूआती	-13509
▁एयरलाइंस	-13510
▁मान्यताओं	-13511
थिन	-13512
वेष	-13513
▁बर्ताव	-13514
▁भीख	-13515
▁भून	-13516
▁दुष्य	-13517
ण्ट	-13518
▁पहनी	-13519
ेंटाइन	-13520
▁बाबरी	-13521
▁बीएसए	-13522
▁रक्षक	-13523
▁डिव	-13524
▁बड़ौदा	-13525
▁मुहा	-13526
फोर्ड	-13527
▁गाजर	-13528
▁मॉनि	-13529
▁हिमांशु	-13530
बच्च	-13531
▁टेलीकॉम	-13532
▁आैर	-13533
मका	-13534
▁बीएड	-13535
▁हैरत	-13536
▁छोड़ते	-13537
----------------	-13538
ढी	-13539
▁हाफिज	-13540
प्रदर्शन	-13541
▁सोनाक्षी	-13542
▁फेज	-13543
▁रॉकेट	-13544
▁प्रणाम	-13545
▁घुल	-13546
▁निचली	-13547
▁भ्रूण	-13548
▁लेखपाल	-13549
▁गेज	-13550
▁संपत्तियों	-13551
▁व्हील	-13552
▁अधिशा	-13553
▁ताल्ल	-13554
▁अपग्रेड	-13555
▁अवधेश	-13556
जिम	-13557
▁सुविधाजनक	-13558
▁लिप्त	-13559
▁सोचकर	-13560
लिन	-13561
▁आड़े	-13562
▁वक्तव्य	-13563
▁प्रोड्यूसर	-13564
राउंडर	-13565
बेरी	-13566
▁तंबाकू	-13567
▁पत्ता	-13568
▁एफडी	-13569
समैन	-13570
▁चुटकी	-13571
▁कंडी	-13572
▁चाइल्ड	-13573
▁एवज	-13574
▁शक्ल	-13575
लिप्त	-13576
▁सनराइज	-13577
▁पोख	-13578
▁गणमान्य	-13579
▁घनश्याम	-13580
▁मेगावाट	-13581
▁कल्चर	-13582
▁रश्मि	-13583
▁देशमुख	-13584
▁बैत	-13585
गुल	-13586
▁न्यो	-13587
स्ट्रा	-13588
▁जयललिता	-13589
समझ	-13590
▁thumb	-13591
▁घाटों	-13592
▁आइसोलेशन	-13593
▁रनौत	-13594
▁संगो	-13595
बेटी	-13596
▁ओं	-13597
▁ग्रसित	-13598
▁खुजली	-13599
▁एप्प	-13600
▁अनियमितता	-13601
▁रेक	-13602
▁कहानियाँ	-13603
▁नड्डा	-13604
▁सेबी	-13605
▁प्रक्षे	-13606
सलर	-13607
▁आकस्मिक	-13608
चारा	-13609
▁चोटें	-13610
यंत्र	-13611
श्रम	-13612
▁टंकी	-13613
▁हुक्	-13614
▁जनप्रतिनिधि	-13615
ay	-13616
▁आजमा	-13617
▁जवाबी	-13618
▁परिषद्	-13619
▁बिज़नेस	-13620
▁एनसीपी	-13621
▁श्रृंगार	-13622
रादित्य	-13623
▁श्रेणियों	-13624
विवाह	-13625
▁कगार	-13626
▁बैरल	-13627
ोसिस	-13628
फ़्	-13629
▁खींचने	-13630
▁महाप्रबंधक	-13631
फ्ल	-13632
▁एनआरसी	-13633
▁बिल्डर	-13634
▁खुशियां	-13635
▁फ्यू	-13636
▁प्रमुखता	-13637
▁अंप	-13638
▁पारियों	-13639
▁ऐंड	-13640
.1	-13641
▁कुंवर	-13642
▁ट्रांसफार्मर	-13643
जाद	-13644
▁भवानी	-13645
▁सूर्या	-13646
▁गुड़गांव	-13647
▁पिघ	-13648
▁रास्तों	-13649
▁तीखी	-13650
▁रिस्प	-13651
▁गगन	-13652
▁लेंस	-13653
▁प्रदाता	-13654
▁परफॉर्मेंस	-13655
पिछ	-13656
▁लगाता	-13657
▁लेखिका	-13658
▁बुन	-13659
▁चौथ	-13660
▁वोल्ट	-13661
वार्ता	-13662
▁कोयले	-13663
सां	-13664
▁पुर्त	-13665
▁सामर्थ	-13666
▁धर्मा	-13667
▁छुट्टियां	-13668
▁दण्ड	-13669
▁प्रतियोगिताओं	-13670
▁आवेदकों	-13671
श्यों	-13672
▁रिव्यू	-13673
▁जन्मभूमि	-13674
नाइज	-13675
▁चार्जिंग	-13676
▁व्यवस्थाओं	-13677
▁कुपोषण	-13678
▁ग्रेजुएट	-13679
▁छक्का	-13680
▁पृथक	-13681
▁बिच	-13682
▁परशुराम	-13683
▁चौंक	-13684
▁असु	-13685
▁यूएन	-13686
▁पीएनबी	-13687
▁छतर	-13688
▁गजब	-13689
▁विद्यमान	-13690
▁पूज्य	-13691
▁विवेचना	-13692
▁बोलता	-13693
▁अव्य	-13694
▁बाबर	-13695
▁प्रसंस्करण	-13696
पालक	-13697
▁एफसी	-13698
▁मेडिस	-13699
▁ढूंढने	-13700
तून	-13701
▁मंह	-13702
िडोर	-13703
स्क्यू	-13704
ब्बल	-13705
▁चढ़कर	-13706
▁संभवतः	-13707
▁मेँ	-13708
▁षड्य	-13709
▁सोलंकी	-13710
▁इलेक्ट्रॉनिक्स	-13711
▁व्याख्यान	-13712
▁विमोचन	-13713
▁सँ	-13714
▁चिन्ता	-13715
▁सोरेन	-13716
▁पांचवीं	-13717
▁पहुंचेगी	-13718
▁सों	-13719
▁सराहा	-13720
ोनें	-13721
▁उद्देश्यों	-13722
स्थापन	-13723
क्यू	-13724
▁काया	-13725
स्तिक	-13726
केला	-13727
▁नौका	-13728
▁इब्राह	-13729
▁ठिकाने	-13730
णवीस	-13731
▁घेरा	-13732
▁मुल	-13733
▁थर्मल	-13734
▁आश्चर्यजनक	-13735
▁एबीवीपी	-13736
▁दुर्व	-13737
▁परमार	-13738
▁आत्मघाती	-13739
▁आपूर्तिकर्ताओं	-13740
▁अनुष्ठान	-13741
▁पोज	-13742
र्शियल	-13743
▁संघीय	-13744
▁बेगूसराय	-13745
▁रजिस्ट्री	-13746
▁तटीय	-13747
▁चैम्पियनशिप	-13748
▁अलैहि	-13749
मौर	-13750
ल्डिंग	-13751
▁खिलवाड़	-13752
▁बाड़मेर	-13753
▁इस्र	-13754
▁यंग	-13755
▁सोलह	-13756
लाइज	-13757
▁मत्स्य	-13758
▁राउत	-13759
▁सिफारिशों	-13760
▁मार्शल	-13761
▁खराबी	-13762
▁कुरान	-13763
▁हार्डवेयर	-13764
कोच	-13765
▁झांसा	-13766
▁क़रीब	-13767
▁आज़	-13768
▁ब्राउन	-13769
▁पहुंचता	-13770
ग्राउंड	-13771
▁बुद्धिमान	-13772
▁इंटेलिज	-13773
▁मसला	-13774
▁आयरलैंड	-13775
फली	-13776
एशिया	-13777
▁बचाना	-13778
▁नानक	-13779
▁पोर्न	-13780
▁उपेंद्र	-13781
▁इर्द	-13782
▁ज्योतिरादित्य	-13783
▁हिस्ट्री	-13784
वरा	-13785
स्थाई	-13786
▁रोमांच	-13787
▁मिनटों	-13788
कई	-13789
मिला	-13790
▁सामानों	-13791
▁गुंजा	-13792
▁एनडीटीवी	-13793
पसंद	-13794
▁उतरा	-13795
▁यूज़	-13796
▁अंधकार	-13797
▁आनलाइन	-13798
▁कोशिका	-13799
,"	-13800
▁तबके	-13801
▁कोशिशें	-13802
▁लाभान्वित	-13803
▁एकदिवसीय	-13804
▁कली	-13805
▁लूटने	-13806
▁घिरे	-13807
ेंसिक	-13808
▁पंचा	-13809
▁डिस्टेंसिंग	-13810
▁अंतर्	-13811
▁दोगुनी	-13812
णिक	-13813
▁प्रदेशाध्यक्ष	-13814
▁परिक	-13815
विश	-13816
▁मनाली	-13817
▁फॉर्मेट	-13818
▁पीपुल	-13819
▁दार्शन	-13820
▁मैन्यु	-13821
▁होंडा	-13822
▁स्टैंडर्ड	-13823
एंड	-13824
▁चौड़ी	-13825
▁re	-13826
जोरम	-13827
मीडिया	-13828
त्तियां	-13829
▁करुण	-13830
ांट	-13831
▁बांटे	-13832
▁तुरन्त	-13833
▁सोलन	-13834
▁करारी	-13835
▁अल्मोड़ा	-13836
▁पिछला	-13837
स्क्रीन	-13838
▁रेम	-13839
प्रिंट	-13840
▁जयप्रकाश	-13841
▁विस्थापित	-13842
▁al	-13843
▁रितेश	-13844
▁पुर्तग	-13845
▁सिखाने	-13846
▁अदालतों	-13847
▁क्रिप्ट	-13848
▁चौकीदार	-13849
▁रियलिटी	-13850
▁स्टार्टअप	-13851
▁अजहर	-13852
▁पढ़िए	-13853
▁बिंदुओं	-13854
▁दंग	-13855
▁ख़ूब	-13856
▁मिजोरम	-13857
▁खोली	-13858
▁पैरवी	-13859
▁छात्रसंघ	-13860
▁सानिया	-13861
▁बटालियन	-13862
▁कोलेस्ट्रॉल	-13863
उद्दीन	-13864
▁दूरदर्शन	-13865
▁उपराज्यपाल	-13866
▁हें	-13867
▁मिर्	-13868
▁सूचनाएं	-13869
▁बिकने	-13870
▁चित्रण	-13871
▁ताले	-13872
▁निष्का	-13873
▁मालदीव	-13874
▁उड़ाने	-13875
▁सोयाबीन	-13876
▁किफ	-13877
▁रस्म	-13878
▁नप	-13879
▁बेस्ड	-13880
▁मेमोरी	-13881
▁वैशाली	-13882
▁भड़का	-13883
▁वोडाफोन	-13884
▁पंडाल	-13885
▁ज़िम्मेदारी	-13886
▁टाइटल	-13887
▁सोनाली	-13888
▁थै	-13889
▁उपलक्ष्य	-13890
.?	-13891
▁अभूत	-13892
▁इंसाफ	-13893
▁ज्वेल	-13894
▁मझ	-13895
▁सोर्स	-13896
▁अंबिका	-13897
डॉ	-13898
ंतव्य	-13899
▁लगाती	-13900
नहीं	-13901
▁गाते	-13902
▁करोगे	-13903
▁हराने	-13904
▁बाबूलाल	-13905
▁कोस	-13906
▁अभिम	-13907
▁दामन	-13908
▁कल्याणकारी	-13909
तब	-13910
भिमान	-13911
▁पैलेस	-13912
▁अा	-13913
▁लिवर	-13914
▁चाइना	-13915
▁समन	-13916
▁दून	-13917
▁बायोपिक	-13918
▁उद्योगपति	-13919
▁काल्	-13920
स्तीपुर	-13921
▁बगा	-13922
▁असीम	-13923
▁त्रासदी	-13924
▁नमाज़	-13925
▁विमानन	-13926
▁राजस्थानी	-13927
▁शंका	-13928
▁चेहरों	-13929
▁मसाज	-13930
▁गुर्	-13931
▁चमकदार	-13932
▁पवेलियन	-13933
▁सुधारों	-13934
▁जुर्	-13935
▁क्रान	-13936
▁मांगते	-13937
▁सिरदर्द	-13938
▁इब्राहिम	-13939
st	-13940
▁पिथ	-13941
▁तैमूर	-13942
▁एम्	-13943
नए	-13944
▁सबने	-13945
▁पोशाक	-13946
▁वीकेंड	-13947
▁एडिटर	-13948
ल्लत	-13949
▁श्म	-13950
▁बढ़ाए	-13951
खेज	-13952
ंत्रण	-13953
▁आठवें	-13954
▁इण	-13955
▁शोएब	-13956
क़ात	-13957
▁कराची	-13958
▁अंधा	-13959
▁चाणक्य	-13960
▁स्लाइड	-13961
▁उन्ही	-13962
▁दिक्कतें	-13963
▁कैथ	-13964
▁लिपि	-13965
▁जुनून	-13966
▁बुझाने	-13967
▁ईशान	-13968
ोनियों	-13969
▁टुकड़ों	-13970
▁बदलता	-13971
संगत	-13972
▁ढूँ	-13973
▁पूँ	-13974
▁दाखिले	-13975
▁युवतियों	-13976
ाइजर	-13977
▁जोंग	-13978
स्टा	-13979
▁कार्बो	-13980
▁हरभजन	-13981
बिग	-13982
▁बॉबी	-13983
▁हेल्दी	-13984
▁पथरी	-13985
▁बराक	-13986
▁कंटेस्टेंट	-13987
केर	-13988
▁कीड़े	-13989
▁।।	-13990
▁एम्बुलेंस	-13991
▁मशीनरी	-13992
▁मौज	-13993
▁दुष्यंत	-13994
▁सीरीज़	-13995
▁डिल	-13996
▁भूखे	-13997
▁बक्	-13998
▁लाता	-13999
▁शिविरों	-14000
▁नौजवानों	-14001
▁पहुंचीं	-14002
लीटर	-14003
▁प्रप	-14004
▁माहिर	-14005
▁फ़ैसला	-14006
▁सरी	-14007
▁उड़ीसा	-14008
▁ईशा	-14009
▁डूबे	-14010
▁शर्मि	-14011
फ़्ट	-14012
▁खोद	-14013
▁जलने	-14014
ोजगार	-14015
सूत्र	-14016
▁ज्या	-14017
▁ग्लैमर	-14018
▁रोके	-14019
▁विचित्र	-14020
जाना	-14021
▁दोस्तो	-14022
▁सुखा	-14023
▁निखिल	-14024
▁जुर्माने	-14025
▁अंपायर	-14026
▁एंटरटेनमेंट	-14027
्वल	-14028
ेला	-14029
▁इनमे	-14030
▁कुमारस्वामी	-14031
तनी	-14032
▁गोगोई	-14033
▁चूँ	-14034
ab	-14035
▁चटर्जी	-14036
▁नुस्खे	-14037
हिर	-14038
म्स	-14039
▁पीके	-14040
ैण्ड	-14041
ब्रिज	-14042
▁हड	-14043
▁कत्ल	-14044
▁मनोवैज्ञानिक	-14045
जक	-14046
राइच	-14047
▁छेड़खानी	-14048
खोरी	-14049
त्विक	-14050
▁इन्सान	-14051
▁जुबान	-14052
▁राष्ट्रमंडल	-14053
▁रतलाम	-14054
▁रेखांकित	-14055
▁धरात	-14056
▁फैक्टरी	-14057
▁अभूतपूर्व	-14058
▁छिपी	-14059
▁अन्तिम	-14060
▁आविष्कार	-14061
नास	-14062
▁कंटेनर	-14063
▁मुख्तार	-14064
▁सहकारिता	-14065
▁आॅफ	-14066
▁उध	-14067
▁श्वेत	-14068
▁भूस्खलन	-14069
▁लौटना	-14070
▁सूचनाओं	-14071
▁सत्याग्रह	-14072
योजना	-14073
▁लौटी	-14074
▁महापुरुष	-14075
▁झूल	-14076
▁सेनानी	-14077
▁श्ल	-14078
ुमा	-14079
▁बेवकू	-14080
ूजा	-14081
▁सुनाते	-14082
▁गोक	-14083
▁हरेक	-14084
▁असंतोष	-14085
▁काउंसलिंग	-14086
▁ताऊ	-14087
▁दर्जे	-14088
▁लेफ्टिनेंट	-14089
▁तीज	-14090
▁गोवि	-14091
▁दुर्भाग्यपूर्ण	-14092
▁मिलीं	-14093
▁सेमिनार	-14094
▁असफलता	-14095
▁शिकायतकर्ता	-14096
▁महत्वाकांक्षी	-14097
खिक	-14098
▁णन	-14099
▁चढ़ने	-14100
▁संप्रदाय	-14101
▁स्वायत्त	-14102
▁मूर्तियों	-14103
▁मेहमानों	-14104
▁आपरेशन	-14105
▁इसस	-14106
▁कॉरपोरेट	-14107
पीने	-14108
▁केन्द्रित	-14109
स्फी	-14110
▁पलटवार	-14111
बाबा	-14112
▁बूट	-14113
▁आरसी	-14114
▁करारा	-14115
कील	-14116
▁कदा	-14117
▁पैदावार	-14118
▁राजकुमारी	-14119
ॉयस	-14120
▁अंकल	-14121
▁फरिया	-14122
▁करोड़पति	-14123
▁ब्रेड	-14124
गों	-14125
▁अभिया	-14126
▁बद्री	-14127
▁कर्मों	-14128
▁फैजाबाद	-14129
▁मिलनी	-14130
▁विषा	-14131
▁थ्र	-14132
▁साक्षरता	-14133
▁रौन	-14134
▁त्रुटि	-14135
▁वैल्यू	-14136
्यवहार	-14137
तिल	-14138
▁रूह	-14139
▁चेंज	-14140
▁पुरात	-14141
▁पारि	-14142
▁दबाकर	-14143
▁स्टाल	-14144
रिस	-14145
▁रोजमर्रा	-14146
▁सुर्खियां	-14147
कुम	-14148
यार	-14149
त्याशित	-14150
▁मिलाने	-14151
्लाद	-14152
▁तरस	-14153
▁गड़बड़	-14154
▁मिर्जापुर	-14155
मणि	-14156
▁षड्यंत्र	-14157
▁कबू	-14158
▁वेतनमान	-14159
▁दर्शाया	-14160
▁संलिप्त	-14161
▁घेराब	-14162
▁कलह	-14163
▁समाह	-14164
▁प्रोमो	-14165
▁निजाम	-14166
▁पडे	-14167
▁आसिफ	-14168
▁यूनि	-14169
▁खुराना	-14170
▁नाता	-14171
▁डेमोक्रेटिक	-14172
▁इंप	-14173
रेस	-14174
▁or	-14175
▁सूखी	-14176
र्नर	-14177
▁बरसों	-14178
▁दिखायी	-14179
▁प्रस्थान	-14180
▁कूप	-14181
▁जीतना	-14182
फोर्निया	-14183
▁प्रतिरोधक	-14184
▁प्रतिबंधों	-14185
▁पानीपत	-14186
▁केवी	-14187
▁अग्रसर	-14188
▁आरएस	-14189
▁रेस्क्यू	-14190
▁शंकराचार्य	-14191
ङ्	-14192
▁सनराइजर्स	-14193
▁प्यारा	-14194
द्रास	-14195
▁फुटबाल	-14196
▁टेप	-14197
▁2.	-14198
▁कोरबा	-14199
ाइलों	-14200
▁वेंक	-14201
▁खादी	-14202
▁जेडीएस	-14203
▁माओवादियों	-14204
▁गौड़	-14205
हाट	-14206
▁बूढ़े	-14207
▁एनाल	-14208
▁अफगान	-14209
▁यहा	-14210
▁अस्थाई	-14211
▁मुंगेर	-14212
▁सूप	-14213
ियेटर	-14214
▁शिला	-14215
शियन	-14216
्रफ	-14217
गिंग	-14218
सुबह	-14219
▁टहल	-14220
▁समझदार	-14221
▁एडमिन	-14222
▁अद्यतन	-14223
इसी	-14224
▁जिज्ञासा	-14225
▁लियो	-14226
▁थप्पड़	-14227
▁गांधीजी	-14228
▁विवाहिता	-14229
▁सूचक	-14230
बीटी	-14231
चुरल	-14232
▁काठमांड	-14233
▁भुगतना	-14234
▁विशेषताओं	-14235
ियाल	-14236
▁गोरा	-14237
▁जाइए	-14238
▁स्टॉप	-14239
▁बुलेटिन	-14240
▁नरक	-14241
▁कराती	-14242
▁अप्रत्यक्ष	-14243
▁बदतर	-14244
ैतिक	-14245
▁घुमा	-14246
पढ़	-14247
उत्	-14248
▁पर्ची	-14249
▁प्रेसि	-14250
ईन	-14251
▁रीजन	-14252
▁संकाय	-14253
▁टेलीफोन	-14254
▁आपातकालीन	-14255
▁प्रवचन	-14256
▁हिरण	-14257
डोल	-14258
▁खग	-14259
▁छाए	-14260
▁तरण	-14261
▁चौपाल	-14262
▁तिहाई	-14263
▁वृंदा	-14264
▁किल्लत	-14265
▁पपी	-14266
▁मिस्टर	-14267
▁शरार	-14268
▁भूटान	-14269
▁शोभायात्रा	-14270
तेश्वर	-14271
पंथियों	-14272
▁समझदारी	-14273
▁सिंद	-14274
▁पकड	-14275
▁अफेयर	-14276
पुलिस	-14277
▁राधिका	-14278
▁दीक्षा	-14279
▁स्तरों	-14280
▁बाराब	-14281
▁उत्सर्जन	-14282
▁भिलाई	-14283
▁गें	-14284
▁राजाओं	-14285
▁डॉक्यूमेंट	-14286
▁भट्टा	-14287
▁अंधेरा	-14288
▁आख़िर	-14289
▁विजिट	-14290
▁रूपरेखा	-14291
▁समस्तीपुर	-14292
▁टीजर	-14293
▁बेचैनी	-14294
▁मेहरा	-14295
रोधी	-14296
▁जाली	-14297
▁पंचमी	-14298
▁गोष्ठी	-14299
▁रजिस्ट्रार	-14300
▁दंपति	-14301
द्रमुक	-14302
▁ज़माने	-14303
▁शनल	-14304
सलमेर	-14305
▁करेंसी	-14306
▁ट्रिपल	-14307
▁दुल	-14308
▁सुगंध	-14309
▁लोकायुक्त	-14310
▁कोहरे	-14311
▁एडिट	-14312
कित	-14313
मीडिएट	-14314
▁अप्रत्याशित	-14315
▁लड़ना	-14316
▁बहार	-14317
▁सौंपे	-14318
▁क्लीनिक	-14319
▁कमिटी	-14320
▁मौकों	-14321
▁चूँकि	-14322
▁सरगना	-14323
▁महाराणा	-14324
ऐसे	-14325
किनार	-14326
▁घटाकर	-14327
▁यूजीसी	-14328
केंद्र	-14329
▁पेटीएम	-14330
▁शस्त्र	-14331
▁थमने	-14332
▁वल्लभ	-14333
▁हटकर	-14334
▁करनाल	-14335
▁जड़ी	-14336
▁नियंत्रक	-14337
▁आकृति	-14338
▁मराठा	-14339
सराय	-14340
▁सॉन्ग	-14341
मंदिर	-14342
प्रयाग	-14343
ष्णुता	-14344
▁पठानकोट	-14345
▁सडक़	-14346
▁खरीदें	-14347
्वॉय	-14348
▁परोस	-14349
▁पुजारा	-14350
▁खटख	-14351
▁लड़ी	-14352
▁अनोखी	-14353
▁रॉयल्स	-14354
▁अनुशंसा	-14355
▁शश	-14356
ग्गी	-14357
▁दावेदारी	-14358
बाइल	-14359
▁सहेज	-14360
▁लाइनों	-14361
▁क्षमताओं	-14362
▁दायरा	-14363
फील्ड	-14364
▁इय	-14365
▁सर्रा	-14366
▁बिखर	-14367
▁निर्वहन	-14368
विवाद	-14369
▁पुलिया	-14370
▁अंधविश्वास	-14371
ाधीन	-14372
▁फ़्ल	-14373
▁औषधीय	-14374
वॉ	-14375
▁तलाशने	-14376
▁हाउसिंग	-14377
▁आनी	-14378
▁दोहरी	-14379
▁दिखेगा	-14380
▁अथव	-14381
▁नंदी	-14382
▁इन्ही	-14383
▁मोबाईल	-14384
▁देवास	-14385
▁ऑफलाइन	-14386
ोले	-14387
मयी	-14388
▁अंद	-14389
▁मांगें	-14390
▁नजरें	-14391
▁पशुपालन	-14392
▁स्पेक्ट	-14393
▁सहभागिता	-14394
▁फूंक	-14395
▁सौगात	-14396
▁ढल	-14397
▁चप्पल	-14398
▁शत्रुघ्न	-14399
▁श्लोक	-14400
▁टर्न	-14401
▁बीएम	-14402
▁आधारभूत	-14403
▁सापेक्ष	-14404
▁लगत	-14405
▁लुत्	-14406
▁मंगा	-14407
▁ठुकरा	-14408
▁खड	-14409
▁क्रिएट	-14410
▁आत्	-14411
▁नीच	-14412
▁नीयत	-14413
▁दरकिनार	-14414
▁नड	-14415
▁पर्दाफाश	-14416
▁धोखे	-14417
▁घेराबंदी	-14418
किता	-14419
▁मैरी	-14420
▁अम्मा	-14421
फोल	-14422
▁पैग	-14423
▁कल्प	-14424
▁धरातल	-14425
▁अपमानित	-14426
▁अष्ट	-14427
▁तेर	-14428
▁दंगल	-14429
▁डुअल	-14430
▁पूर्णिया	-14431
▁दाढ़ी	-14432
ामुखी	-14433
▁राजभर	-14434
▁घू	-14435
▁अब्राह	-14436
▁सत्संग	-14437
▁माध्यमों	-14438
▁रोहि	-14439
नीकरण	-14440
फेर	-14441
मिट	-14442
▁चूर	-14443
▁फेफड़ों	-14444
बूल	-14445
▁डायलॉग	-14446
▁शर्तें	-14447
▁माथुर	-14448
▁रखेगा	-14449
▁किफायती	-14450
▁अन्नाद्रमुक	-14451
▁खामिया	-14452
▁कीचड़	-14453
▁ब्लूट	-14454
▁करवाकर	-14455
▁लेबर	-14456
▁नसीहत	-14457
क्रेट	-14458
▁प्लॉट	-14459
▁भंडारी	-14460
▁11	-14461
▁बहराइच	-14462
▁ड्राफ्ट	-14463
▁काश	-14464
▁अनलॉक	-14465
प्पे	-14466
▁तबियत	-14467
▁विक्रेताओं	-14468
▁एलजी	-14469
▁ट्रा	-14470
नियां	-14471
▁करवाते	-14472
▁वेंट	-14473
▁होमगार्ड	-14474
▁गिरीश	-14475
▁एंडरसन	-14476
ासित	-14477
▁कंफ	-14478
▁सनसनीखेज	-14479
▁नीद	-14480
▁अमरो	-14481
▁विवादा	-14482
्ण	-14483
▁विह	-14484
▁हाजी	-14485
▁व्यवसायिक	-14486
▁सेगमेंट	-14487
रांव	-14488
▁हज़ारों	-14489
▁अर्जेंटी	-14490
▁बलरामपुर	-14491
▁रिपोर्टिंग	-14492
▁सूत्री	-14493
▁file	-14494
▁रंगे	-14495
▁भयभीत	-14496
▁स्विट्	-14497
▁क्वीन	-14498
▁बबलू	-14499
▁वॉशिंगटन	-14500
▁यण	-14501
▁दुर्घटनाग्रस्त	-14502
▁असमान	-14503
▁मुखबिर	-14504
▁धकेल	-14505
▁जिता	-14506
▁योनि	-14507
▁मेें	-14508
तृक	-14509
▁गुरमीत	-14510
▁जोड़ना	-14511
▁प्रतिमाह	-14512
जेट	-14513
्ये	-14514
▁चांदनी	-14515
▁श्रॉफ	-14516
▁सूर्योदय	-14517
▁‘’	-14518
▁खोने	-14519
▁संभा	-14520
यानी	-14521
फेस	-14522
▁चिन	-14523
▁कंसल	-14524
▁बोकारो	-14525
▁दारोगा	-14526
लाइका	-14527
▁हकदार	-14528
▁अंदरूनी	-14529
▁विकासखंड	-14530
ंहार	-14531
▁क्यूँ	-14532
▁क्लर्क	-14533
चीनी	-14534
▁भीमराव	-14535
रोट	-14536
ौटी	-14537
▁सरिता	-14538
▁शासनकाल	-14539
▁बालाजी	-14540
▁गवर्नमेंट	-14541
▁मता	-14542
▁रची	-14543
▁कोर्	-14544
▁प्रजनन	-14545
▁गैरकानूनी	-14546
राइड	-14547
▁खरीफ	-14548
▁पहेली	-14549
ौरिया	-14550
ब्बू	-14551
▁फरवर	-14552
▁बर्बर	-14553
▁पंचम	-14554
▁अधूरी	-14555
▁कीट	-14556
▁ब्रेन	-14557
▁करनेवाले	-14558
ञ्	-14559
▁ग्रोवर	-14560
▁प्ली	-14561
▁अभियोजन	-14562
जुकी	-14563
▁मटर	-14564
▁संक्रांति	-14565
▁फाटक	-14566
▁बादलों	-14567
▁फिरा	-14568
▁सेटिंग्स	-14569
एमई	-14570
▁रोककर	-14571
ध्द	-14572
▁कैन	-14573
▁किस्त	-14574
▁करूँगा	-14575
▁ताल्लुक	-14576
▁पें	-14577
▁वट	-14578
ायुक्त	-14579
▁मैडम	-14580
▁वासु	-14581
ँगे	-14582
▁हाय	-14583
▁डकैती	-14584
▁कविताएं	-14585
[...]
